{
  "version": "1.0",
  "truncation": null,
  "padding": null,
  "added_tokens": [
    {
      "id": 0,
      "content": "<unk>",
      "single_word": false,
      "lstrip": false,
      "rstrip": false,
      "normalized": false,
      "special": true
    }
  ],
  "normalizer": {
    "type": "NFKC"
  },
  "pre_tokenizer": {
    "type": "Metaspace",
    "replacement": "▁",
    "add_prefix_space": true
  },
  "post_processor": null,
  "decoder": {
    "type": "Metaspace",
    "replacement": "▁",
    "add_prefix_space": true
  },
  "model": {
    "type": "BPE",
    "dropout": null,
    "unk_token": "<unk>",
    "continuing_subword_prefix": null,
    "end_of_word_suffix": null,
    "fuse_unk": false,
    "byte_fallback": false,
    "vocab": {
      "<unk>": 0,
      "\t": 1,
      "\n": 2,
      "!": 3,
      "\"": 4,
      "#": 5,
      "$": 6,
      "%": 7,
      "&": 8,
      "'": 9,
      "(": 10,
      ")": 11,
      "*": 12,
      "+": 13,
      ",": 14,
      "-": 15,
      ".": 16,
      "/": 17,
      "0": 18,
      "1": 19,
      "2": 20,
      "3": 21,
      "4": 22,
      "5": 23,
      "6": 24,
      "7": 25,
      "8": 26,
      "9": 27,
      ":": 28,
      ";": 29,
      "<": 30,
      "=": 31,
      ">": 32,
      "?": 33,
      "@": 34,
      "A": 35,
      "B": 36,
      "C": 37,
      "D": 38,
      "E": 39,
      "F": 40,
      "G": 41,
      "H": 42,
      "I": 43,
      "J": 44,
      "K": 45,
      "L": 46,
      "M": 47,
      "N": 48,
      "O": 49,
      "P": 50,
      "Q": 51,
      "R": 52,
      "S": 53,
      "T": 54,
      "U": 55,
      "V": 56,
      "W": 57,
      "X": 58,
      "Y": 59,
      "Z": 60,
      "[": 61,
      "\\": 62,
      "]": 63,
      "^": 64,
      "_": 65,
      "`": 66,
      "a": 67,
      "b": 68,
      "c": 69,
      "d": 70,
      "e": 71,
      "f": 72,
      "g": 73,
      "h": 74,
      "i": 75,
      "j": 76,
      "k": 77,
      "l": 78,
      "m": 79,
      "n": 80,
      "o": 81,
      "p": 82,
      "q": 83,
      "r": 84,
      "s": 85,
      "t": 86,
      "u": 87,
      "v": 88,
      "w": 89,
      "x": 90,
      "y": 91,
      "z": 92,
      "{": 93,
      "|": 94,
      "}": 95,
      "~": 96,
      "": 97,
      "": 98,
      "": 99,
      "": 100,
      "": 101,
      "": 102,
      "": 103,
      "": 104,
      "": 105,
      "": 106,
      "": 107,
      "": 108,
      "¡": 109,
      "¢": 110,
      "£": 111,
      "¤": 112,
      "¥": 113,
      "¦": 114,
      "§": 115,
      "©": 116,
      "«": 117,
      "¬": 118,
      "­": 119,
      "®": 120,
      "°": 121,
      "±": 122,
      "¶": 123,
      "·": 124,
      "»": 125,
      "¿": 126,
      "À": 127,
      "Á": 128,
      "Â": 129,
      "Ã": 130,
      "Ä": 131,
      "Å": 132,
      "Æ": 133,
      "Ç": 134,
      "È": 135,
      "É": 136,
      "Ê": 137,
      "Ë": 138,
      "Í": 139,
      "Î": 140,
      "Ï": 141,
      "Ð": 142,
      "Ñ": 143,
      "Ò": 144,
      "Ó": 145,
      "Ô": 146,
      "Õ": 147,
      "Ö": 148,
      "×": 149,
      "Ø": 150,
      "Ú": 151,
      "Û": 152,
      "Ü": 153,
      "Þ": 154,
      "ß": 155,
      "à": 156,
      "á": 157,
      "â": 158,
      "ã": 159,
      "ä": 160,
      "å": 161,
      "æ": 162,
      "ç": 163,
      "è": 164,
      "é": 165,
      "ê": 166,
      "ë": 167,
      "ì": 168,
      "í": 169,
      "î": 170,
      "ï": 171,
      "ð": 172,
      "ñ": 173,
      "ò": 174,
      "ó": 175,
      "ô": 176,
      "õ": 177,
      "ö": 178,
      "ø": 179,
      "ù": 180,
      "ú": 181,
      "û": 182,
      "ü": 183,
      "ý": 184,
      "þ": 185,
      "ÿ": 186,
      "Ā": 187,
      "ā": 188,
      "Ă": 189,
      "ă": 190,
      "ą": 191,
      "Ć": 192,
      "ć": 193,
      "Č": 194,
      "č": 195,
      "Đ": 196,
      "đ": 197,
      "Ē": 198,
      "ē": 199,
      "ė": 200,
      "ę": 201,
      "ě": 202,
      "ğ": 203,
      "ġ": 204,
      "Ħ": 205,
      "ħ": 206,
      "ĩ": 207,
      "Ī": 208,
      "ī": 209,
      "İ": 210,
      "ı": 211,
      "Ľ": 212,
      "ľ": 213,
      "Ł": 214,
      "ł": 215,
      "ń": 216,
      "ņ": 217,
      "ň": 218,
      "ŋ": 219,
      "Ō": 220,
      "ō": 221,
      "ŏ": 222,
      "ő": 223,
      "Œ": 224,
      "œ": 225,
      "Ř": 226,
      "ř": 227,
      "Ś": 228,
      "ś": 229,
      "Ş": 230,
      "ş": 231,
      "Š": 232,
      "š": 233,
      "ţ": 234,
      "ť": 235,
      "ũ": 236,
      "ū": 237,
      "ů": 238,
      "ŷ": 239,
      "Ÿ": 240,
      "ź": 241,
      "Ż": 242,
      "ż": 243,
      "Ž": 244,
      "ž": 245,
      "ơ": 246,
      "ư": 247,
      "ǎ": 248,
      "ǐ": 249,
      "ǧ": 250,
      "Ș": 251,
      "ș": 252,
      "Ț": 253,
      "ț": 254,
      "ɐ": 255,
      "ɑ": 256,
      "ɒ": 257,
      "ɔ": 258,
      "ə": 259,
      "ɛ": 260,
      "ɡ": 261,
      "ɣ": 262,
      "ɪ": 263,
      "ɫ": 264,
      "ɲ": 265,
      "ɾ": 266,
      "ʁ": 267,
      "ʃ": 268,
      "ʊ": 269,
      "ʋ": 270,
      "ʒ": 271,
      "ʔ": 272,
      "ʺ": 273,
      "ʻ": 274,
      "ʼ": 275,
      "ʾ": 276,
      "ʿ": 277,
      "ˈ": 278,
      "ˌ": 279,
      "ː": 280,
      "̀": 281,
      "́": 282,
      "̃": 283,
      "̄": 284,
      "̇": 285,
      "̈": 286,
      "̊": 287,
      "̓": 288,
      "̧": 289,
      "̱": 290,
      "̲": 291,
      "Α": 292,
      "Γ": 293,
      "Δ": 294,
      "Ε": 295,
      "Η": 296,
      "Θ": 297,
      "Ι": 298,
      "Κ": 299,
      "Λ": 300,
      "Μ": 301,
      "Ν": 302,
      "Ο": 303,
      "Π": 304,
      "Ρ": 305,
      "Σ": 306,
      "Τ": 307,
      "Υ": 308,
      "Φ": 309,
      "Ω": 310,
      "ά": 311,
      "έ": 312,
      "ή": 313,
      "ί": 314,
      "α": 315,
      "β": 316,
      "γ": 317,
      "δ": 318,
      "ε": 319,
      "η": 320,
      "θ": 321,
      "ι": 322,
      "κ": 323,
      "λ": 324,
      "μ": 325,
      "ν": 326,
      "ο": 327,
      "π": 328,
      "ρ": 329,
      "ς": 330,
      "σ": 331,
      "τ": 332,
      "υ": 333,
      "φ": 334,
      "χ": 335,
      "ω": 336,
      "ό": 337,
      "ύ": 338,
      "ώ": 339,
      "А": 340,
      "Б": 341,
      "В": 342,
      "Г": 343,
      "Д": 344,
      "Е": 345,
      "З": 346,
      "И": 347,
      "К": 348,
      "Л": 349,
      "М": 350,
      "Н": 351,
      "О": 352,
      "П": 353,
      "Р": 354,
      "С": 355,
      "Т": 356,
      "У": 357,
      "Х": 358,
      "Ш": 359,
      "Я": 360,
      "а": 361,
      "б": 362,
      "в": 363,
      "г": 364,
      "д": 365,
      "е": 366,
      "ж": 367,
      "з": 368,
      "и": 369,
      "й": 370,
      "к": 371,
      "л": 372,
      "м": 373,
      "н": 374,
      "о": 375,
      "п": 376,
      "р": 377,
      "с": 378,
      "т": 379,
      "у": 380,
      "ф": 381,
      "х": 382,
      "ц": 383,
      "ч": 384,
      "ш": 385,
      "щ": 386,
      "ъ": 387,
      "ы": 388,
      "ь": 389,
      "э": 390,
      "ю": 391,
      "я": 392,
      "ѕ": 393,
      "і": 394,
      "ї": 395,
      "ј": 396,
      "Ա": 397,
      "ա": 398,
      "ե": 399,
      "ի": 400,
      "կ": 401,
      "յ": 402,
      "ն": 403,
      "ո": 404,
      "տ": 405,
      "ր": 406,
      "ւ": 407,
      "א": 408,
      "ב": 409,
      "ג": 410,
      "ד": 411,
      "ה": 412,
      "ו": 413,
      "ח": 414,
      "ט": 415,
      "י": 416,
      "ל": 417,
      "מ": 418,
      "ן": 419,
      "נ": 420,
      "ס": 421,
      "ע": 422,
      "פ": 423,
      "צ": 424,
      "ק": 425,
      "ר": 426,
      "ש": 427,
      "ת": 428,
      "،": 429,
      "آ": 430,
      "أ": 431,
      "إ": 432,
      "ئ": 433,
      "ا": 434,
      "ب": 435,
      "ة": 436,
      "ت": 437,
      "ث": 438,
      "ج": 439,
      "ح": 440,
      "خ": 441,
      "د": 442,
      "ذ": 443,
      "ر": 444,
      "ز": 445,
      "س": 446,
      "ش": 447,
      "ص": 448,
      "ض": 449,
      "ط": 450,
      "ع": 451,
      "غ": 452,
      "ف": 453,
      "ق": 454,
      "ك": 455,
      "ل": 456,
      "م": 457,
      "ن": 458,
      "ه": 459,
      "و": 460,
      "ى": 461,
      "ي": 462,
      "َ": 463,
      "ُ": 464,
      "ک": 465,
      "ی": 466,
      "ं": 467,
      "क": 468,
      "ग": 469,
      "ज": 470,
      "ट": 471,
      "त": 472,
      "थ": 473,
      "द": 474,
      "न": 475,
      "प": 476,
      "ब": 477,
      "म": 478,
      "य": 479,
      "र": 480,
      "ल": 481,
      "व": 482,
      "श": 483,
      "स": 484,
      "ह": 485,
      "ा": 486,
      "ि": 487,
      "ी": 488,
      "ु": 489,
      "ू": 490,
      "े": 491,
      "ो": 492,
      "्": 493,
      "ন": 494,
      "ব": 495,
      "র": 496,
      "া": 497,
      "ি": 498,
      "্": 499,
      "৳": 500,
      "க": 501,
      "த": 502,
      "ி": 503,
      "்": 504,
      "്": 505,
      "ก": 506,
      "ค": 507,
      "ง": 508,
      "ท": 509,
      "น": 510,
      "ป": 511,
      "ม": 512,
      "ย": 513,
      "ร": 514,
      "ล": 515,
      "ส": 516,
      "อ": 517,
      "ั": 518,
      "า": 519,
      "เ": 520,
      "่": 521,
      "ა": 522,
      "ም": 523,
      "ከ": 524,
      "Ḥ": 525,
      "ḥ": 526,
      "ḵ": 527,
      "ṅ": 528,
      "ṇ": 529,
      "ṣ": 530,
      "ṭ": 531,
      "ạ": 532,
      "ả": 533,
      "ấ": 534,
      "ầ": 535,
      "ậ": 536,
      "ắ": 537,
      "ẵ": 538,
      "ẻ": 539,
      "ế": 540,
      "ề": 541,
      "ể": 542,
      "ễ": 543,
      "ệ": 544,
      "ị": 545,
      "Ọ": 546,
      "ọ": 547,
      "ố": 548,
      "ồ": 549,
      "ổ": 550,
      "ộ": 551,
      "ớ": 552,
      "ờ": 553,
      "ủ": 554,
      "ứ": 555,
      "ừ": 556,
      "ữ": 557,
      "ự": 558,
      "ỳ": 559,
      "ỹ": 560,
      "​": 561,
      "‌": 562,
      "‍": 563,
      "‎": 564,
      "‏": 565,
      "‐": 566,
      "‒": 567,
      "–": 568,
      "—": 569,
      "―": 570,
      "‘": 571,
      "’": 572,
      "‚": 573,
      "“": 574,
      "”": 575,
      "„": 576,
      "‟": 577,
      "†": 578,
      "‡": 579,
      "•": 580,
      "‣": 581,
      "‧": 582,
      " ": 583,
      "‪": 584,
      "‬": 585,
      "‭": 586,
      "‰": 587,
      "′": 588,
      "‹": 589,
      "›": 590,
      "※": 591,
      "⁄": 592,
      "⁠": 593,
      "⁣": 594,
      "₦": 595,
      "€": 596,
      "₱": 597,
      "₹": 598,
      "₺": 599,
      "℘": 600,
      "←": 601,
      "↑": 602,
      "→": 603,
      "↓": 604,
      "↩": 605,
      "↵": 606,
      "⇐": 607,
      "⇒": 608,
      "−": 609,
      "∙": 610,
      "√": 611,
      "∞": 612,
      "∼": 613,
      "≈": 614,
      "≤": 615,
      "≥": 616,
      "≫": 617,
      "⋅": 618,
      "─": 619,
      "│": 620,
      "▁": 621,
      "█": 622,
      "■": 623,
      "▪": 624,
      "▲": 625,
      "▶": 626,
      "▷": 627,
      "▸": 628,
      "►": 629,
      "▼": 630,
      "◆": 631,
      "◊": 632,
      "○": 633,
      "●": 634,
      "★": 635,
      "☆": 636,
      "☰": 637,
      "♥": 638,
      "♦": 639,
      "✅": 640,
      "✎": 641,
      "✔": 642,
      "✖": 643,
      "✨": 644,
      "✶": 645,
      "❤": 646,
      "➜": 647,
      "➡": 648,
      "➤": 649,
      "➶": 650,
      "➹": 651,
      "⟵": 652,
      "⟶": 653,
      "⠀": 654,
      "⬇": 655,
      "⭐": 656,
      "、": 657,
      "。": 658,
      "《": 659,
      "》": 660,
      "「": 661,
      "」": 662,
      "【": 663,
      "】": 664,
      "〡": 665,
      "い": 666,
      "お": 667,
      "す": 668,
      "と": 669,
      "な": 670,
      "に": 671,
      "の": 672,
      "は": 673,
      "る": 674,
      "を": 675,
      "ァ": 676,
      "ア": 677,
      "ィ": 678,
      "イ": 679,
      "ウ": 680,
      "オ": 681,
      "カ": 682,
      "キ": 683,
      "ク": 684,
      "グ": 685,
      "コ": 686,
      "サ": 687,
      "シ": 688,
      "ジ": 689,
      "ス": 690,
      "ズ": 691,
      "セ": 692,
      "タ": 693,
      "ダ": 694,
      "ッ": 695,
      "テ": 696,
      "デ": 697,
      "ト": 698,
      "ド": 699,
      "ナ": 700,
      "ニ": 701,
      "バ": 702,
      "パ": 703,
      "フ": 704,
      "ブ": 705,
      "プ": 706,
      "ペ": 707,
      "マ": 708,
      "ム": 709,
      "メ": 710,
      "ュ": 711,
      "ラ": 712,
      "リ": 713,
      "ル": 714,
      "レ": 715,
      "ロ": 716,
      "ン": 717,
      "・": 718,
      "ー": 719,
      "一": 720,
      "三": 721,
      "上": 722,
      "下": 723,
      "不": 724,
      "与": 725,
      "专": 726,
      "世": 727,
      "业": 728,
      "东": 729,
      "中": 730,
      "主": 731,
      "之": 732,
      "乐": 733,
      "了": 734,
      "事": 735,
      "于": 736,
      "亚": 737,
      "交": 738,
      "产": 739,
      "京": 740,
      "人": 741,
      "介": 742,
      "他": 743,
      "代": 744,
      "以": 745,
      "件": 746,
      "企": 747,
      "伍": 748,
      "会": 749,
      "传": 750,
      "位": 751,
      "体": 752,
      "作": 753,
      "入": 754,
      "全": 755,
      "公": 756,
      "共": 757,
      "关": 758,
      "出": 759,
      "分": 760,
      "前": 761,
      "加": 762,
      "化": 763,
      "北": 764,
      "区": 765,
      "华": 766,
      "南": 767,
      "博": 768,
      "及": 769,
      "发": 770,
      "可": 771,
      "台": 772,
      "号": 773,
      "司": 774,
      "合": 775,
      "名": 776,
      "周": 777,
      "和": 778,
      "品": 779,
      "商": 780,
      "器": 781,
      "回": 782,
      "国": 783,
      "國": 784,
      "圖": 785,
      "在": 786,
      "地": 787,
      "场": 788,
      "坛": 789,
      "城": 790,
      "士": 791,
      "备": 792,
      "外": 793,
      "多": 794,
      "大": 795,
      "天": 796,
      "娱": 797,
      "子": 798,
      "学": 799,
      "學": 800,
      "安": 801,
      "官": 802,
      "定": 803,
      "家": 804,
      "少": 805,
      "展": 806,
      "山": 807,
      "島": 808,
      "崎": 809,
      "工": 810,
      "市": 811,
      "布": 812,
      "平": 813,
      "年": 814,
      "建": 815,
      "开": 816,
      "式": 817,
      "当": 818,
      "录": 819,
      "影": 820,
      "律": 821,
      "德": 822,
      "心": 823,
      "成": 824,
      "我": 825,
      "战": 826,
      "所": 827,
      "手": 828,
      "技": 829,
      "投": 830,
      "报": 831,
      "拉": 832,
      "播": 833,
      "政": 834,
      "教": 835,
      "文": 836,
      "斯": 837,
      "新": 838,
      "方": 839,
      "日": 840,
      "明": 841,
      "是": 842,
      "更": 843,
      "書": 844,
      "最": 845,
      "月": 846,
      "有": 847,
      "本": 848,
      "术": 849,
      "机": 850,
      "林": 851,
      "查": 852,
      "校": 853,
      "核": 854,
      "格": 855,
      "桜": 856,
      "業": 857,
      "権": 858,
      "正": 859,
      "比": 860,
      "民": 861,
      "法": 862,
      "注": 863,
      "海": 864,
      "港": 865,
      "游": 866,
      "源": 867,
      "演": 868,
      "火": 869,
      "版": 870,
      "特": 871,
      "王": 872,
      "现": 873,
      "球": 874,
      "理": 875,
      "生": 876,
      "用": 877,
      "电": 878,
      "画": 879,
      "界": 880,
      "登": 881,
      "的": 882,
      "直": 883,
      "省": 884,
      "県": 885,
      "真": 886,
      "研": 887,
      "社": 888,
      "科": 889,
      "究": 890,
      "空": 891,
      "立": 892,
      "站": 893,
      "竞": 894,
      "第": 895,
      "简": 896,
      "米": 897,
      "系": 898,
      "繁": 899,
      "网": 900,
      "置": 901,
      "美": 902,
      "者": 903,
      "联": 904,
      "育": 905,
      "自": 906,
      "與": 907,
      "艺": 908,
      "英": 909,
      "行": 910,
      "術": 911,
      "西": 912,
      "解": 913,
      "計": 914,
      "語": 915,
      "论": 916,
      "语": 917,
      "資": 918,
      "赚": 919,
      "赛": 920,
      "路": 921,
      "载": 922,
      "达": 923,
      "連": 924,
      "道": 925,
      "部": 926,
      "酸": 927,
      "金": 928,
      "钱": 929,
      "長": 930,
      "门": 931,
      "际": 932,
      "限": 933,
      "院": 934,
      "雄": 935,
      "集": 936,
      "音": 937,
      "页": 938,
      "館": 939,
      "首": 940,
      "香": 941,
      "體": 942,
      "高": 943,
      "黃": 944,
      "가": 945,
      "국": 946,
      "기": 947,
      "년": 948,
      "다": 949,
      "로": 950,
      "른": 951,
      "리": 952,
      "보": 953,
      "부": 954,
      "사": 955,
      "소": 956,
      "스": 957,
      "시": 958,
      "아": 959,
      "어": 960,
      "월": 961,
      "이": 962,
      "일": 963,
      "작": 964,
      "전": 965,
      "지": 966,
      "트": 967,
      "한": 968,
      "": 969,
      "": 970,
      "": 971,
      "": 972,
      "": 973,
      "︎": 974,
      "️": 975,
      "﻿": 976,
      "￼": 977,
      "�": 978,
      "🇦": 979,
      "🇧": 980,
      "🇨": 981,
      "🇪": 982,
      "🇬": 983,
      "🇰": 984,
      "🇲": 985,
      "🇷": 986,
      "🇸": 987,
      "🇹": 988,
      "🇺": 989,
      "🎂": 990,
      "🏫": 991,
      "👇": 992,
      "👉": 993,
      "💰": 994,
      "📍": 995,
      "📝": 996,
      "🔥": 997,
      "🙂": 998,
      "🙏": 999,
      "🚌": 1000,
      "▁a": 1001,
      "in": 1002,
      "▁t": 1003,
      "er": 1004,
      "he": 1005,
      "on": 1006,
      "or": 1007,
      "es": 1008,
      "en": 1009,
      "at": 1010,
      "nd": 1011,
      "▁the": 1012,
      "ar": 1013,
      "an": 1014,
      "it": 1015,
      "ed": 1016,
      "al": 1017,
      "▁o": 1018,
      "▁s": 1019,
      "is": 1020,
      "▁c": 1021,
      "▁and": 1022,
      "▁in": 1023,
      "ic": 1024,
      "re": 1025,
      "ing": 1026,
      "ion": 1027,
      "▁f": 1028,
      "▁of": 1029,
      "▁p": 1030,
      "▁w": 1031,
      "ro": 1032,
      "as": 1033,
      "ent": 1034,
      "▁b": 1035,
      "▁S": 1036,
      "▁C": 1037,
      "le": 1038,
      "▁m": 1039,
      "▁A": 1040,
      "▁to": 1041,
      "il": 1042,
      "▁d": 1043,
      "ou": 1044,
      "om": 1045,
      "▁T": 1046,
      "▁h": 1047,
      "ct": 1048,
      "el": 1049,
      "ation": 1050,
      "st": 1051,
      "▁M": 1052,
      "ol": 1053,
      "iv": 1054,
      "▁P": 1055,
      "ra": 1056,
      ".\n": 1057,
      "ch": 1058,
      "et": 1059,
      "▁B": 1060,
      "ur": 1061,
      "ers": 1062,
      "ce": 1063,
      "▁e": 1064,
      "▁I": 1065,
      "▁for": 1066,
      "▁l": 1067,
      "id": 1068,
      "th": 1069,
      "▁re": 1070,
      "ig": 1071,
      "▁D": 1072,
      "▁F": 1073,
      "▁H": 1074,
      "▁n": 1075,
      "▁th": 1076,
      "ir": 1077,
      "▁R": 1078,
      "am": 1079,
      "us": 1080,
      "▁N": 1081,
      "ut": 1082,
      "im": 1083,
      "▁is": 1084,
      "ad": 1085,
      "em": 1086,
      "▁g": 1087,
      "▁L": 1088,
      "▁2": 1089,
      "est": 1090,
      "▁pro": 1091,
      "▁on": 1092,
      "▁E": 1093,
      "ly": 1094,
      "▁G": 1095,
      "s,": 1096,
      "ith": 1097,
      "ow": 1098,
      "ity": 1099,
      "▁W": 1100,
      "ist": 1101,
      "▁1": 1102,
      "ul": 1103,
      "▁(": 1104,
      "▁st": 1105,
      "▁The": 1106,
      "res": 1107,
      "un": 1108,
      "▁as": 1109,
      "ment": 1110,
      "ies": 1111,
      "▁U": 1112,
      "ay": 1113,
      "ter": 1114,
      "▁with": 1115,
      "▁com": 1116,
      "ill": 1117,
      "ud": 1118,
      "▁20": 1119,
      "ate": 1120,
      "and": 1121,
      "op": 1122,
      "▁con": 1123,
      "ci": 1124,
      "ver": 1125,
      "ag": 1126,
      "ot": 1127,
      "’s": 1128,
      "▁J": 1129,
      "▁O": 1130,
      "ab": 1131,
      "os": 1132,
      "▁be": 1133,
      "▁at": 1134,
      "um": 1135,
      "ew": 1136,
      "ort": 1137,
      "ear": 1138,
      "▁an": 1139,
      "▁al": 1140,
      "▁de": 1141,
      "ac": 1142,
      "ard": 1143,
      "▁by": 1144,
      "▁In": 1145,
      "ess": 1146,
      "art": 1147,
      "ive": 1148,
      "pp": 1149,
      "ect": 1150,
      "▁v": 1151,
      "▁wh": 1152,
      "ia": 1153,
      "rom": 1154,
      "du": 1155,
      "▁St": 1156,
      "if": 1157,
      "od": 1158,
      "ri": 1159,
      "e,": 1160,
      "▁was": 1161,
      "▁ex": 1162,
      "igh": 1163,
      "av": 1164,
      "og": 1165,
      "ork": 1166,
      "ant": 1167,
      "▁su": 1168,
      "oc": 1169,
      "ain": 1170,
      "▁from": 1171,
      "▁he": 1172,
      "▁K": 1173,
      "▁that": 1174,
      "cl": 1175,
      "ell": 1176,
      "qu": 1177,
      "for": 1178,
      "▁has": 1179,
      "s.": 1180,
      "ap": 1181,
      "▁r": 1182,
      "▁comp": 1183,
      "ical": 1184,
      "▁are": 1185,
      "mer": 1186,
      "▁it": 1187,
      "ak": 1188,
      "▁en": 1189,
      "oun": 1190,
      "ated": 1191,
      "ld": 1192,
      "ational": 1193,
      "rou": 1194,
      "ber": 1195,
      "ip": 1196,
      "The": 1197,
      "ec": 1198,
      "00": 1199,
      "per": 1200,
      "▁Ch": 1201,
      "▁19": 1202,
      "ine": 1203,
      "all": 1204,
      "ary": 1205,
      "ore": 1206,
      "▁V": 1207,
      "ian": 1208,
      "our": 1209,
      "ast": 1210,
      "so": 1211,
      "ous": 1212,
      "ost": 1213,
      "ure": 1214,
      "ov": 1215,
      "ge": 1216,
      "▁Un": 1217,
      "▁y": 1218,
      "▁res": 1219,
      "ich": 1220,
      "▁or": 1221,
      "ong": 1222,
      "iz": 1223,
      "ff": 1224,
      "▁le": 1225,
      "clud": 1226,
      "y,": 1227,
      "ence": 1228,
      "ub": 1229,
      "erv": 1230,
      "▁201": 1231,
      "ep": 1232,
      "ru": 1233,
      "▁includ": 1234,
      "▁ch": 1235,
      "ran": 1236,
      "ere": 1237,
      "▁“": 1238,
      "vel": 1239,
      "ction": 1240,
      "es,": 1241,
      "ire": 1242,
      "ivers": 1243,
      "▁te": 1244,
      "ult": 1245,
      "▁ad": 1246,
      "ition": 1247,
      "ight": 1248,
      "ign": 1249,
      "end": 1250,
      "form": 1251,
      "▁ac": 1252,
      "▁sp": 1253,
      "▁pl": 1254,
      "ark": 1255,
      "gh": 1256,
      "ther": 1257,
      "▁his": 1258,
      "ry": 1259,
      "ations": 1260,
      "ward": 1261,
      "'s": 1262,
      "ie": 1263,
      "ob": 1264,
      "ust": 1265,
      "und": 1266,
      "▁cont": 1267,
      "▁Y": 1268,
      "ice": 1269,
      "▁Com": 1270,
      "ial": 1271,
      "ide": 1272,
      "rt": 1273,
      "▁will": 1274,
      "ance": 1275,
      "se": 1276,
      "▁sh": 1277,
      "a,": 1278,
      "ric": 1279,
      "▁also": 1280,
      "ram": 1281,
      "any": 1282,
      "▁its": 1283,
      "▁se": 1284,
      "ount": 1285,
      "pl": 1286,
      "ord": 1287,
      "▁work": 1288,
      "▁im": 1289,
      "tern": 1290,
      "ass": 1291,
      "▁per": 1292,
      "▁He": 1293,
      "com": 1294,
      "ave": 1295,
      "ke": 1296,
      "▁year": 1297,
      "olog": 1298,
      "▁which": 1299,
      "orld": 1300,
      "),": 1301,
      "cial": 1302,
      "ach": 1303,
      "lic": 1304,
      "ph": 1305,
      "▁Th": 1306,
      "meric": 1307,
      "velop": 1308,
      "ound": 1309,
      "▁New": 1310,
      "iversity": 1311,
      "ctor": 1312,
      "ities": 1313,
      "▁comm": 1314,
      "er,": 1315,
      "▁rec": 1316,
      "are": 1317,
      "able": 1318,
      "ok": 1319,
      "▁Pro": 1320,
      "ack": 1321,
      "port": 1322,
      "ib": 1323,
      "ish": 1324,
      "over": 1325,
      "▁int": 1326,
      "out": 1327,
      "▁j": 1328,
      "iss": 1329,
      "▁part": 1330,
      "ents": 1331,
      "▁new": 1332,
      "ates": 1333,
      "age": 1334,
      "ace": 1335,
      "▁Americ": 1336,
      "rit": 1337,
      "ory": 1338,
      "▁produ": 1339,
      "ild": 1340,
      "▁more": 1341,
      "enc": 1342,
      "own": 1343,
      "▁un": 1344,
      "▁cl": 1345,
      "▁Al": 1346,
      "earch": 1347,
      "ue": 1348,
      "▁serv": 1349,
      "pt": 1350,
      "▁app": 1351,
      "▁tra": 1352,
      "irst": 1353,
      "ions": 1354,
      ".\nThe": 1355,
      "chn": 1356,
      "▁202": 1357,
      "▁En": 1358,
      "▁have": 1359,
      "ater": 1360,
      "▁their": 1361,
      "ited": 1362,
      "ood": 1363,
      "eg": 1364,
      "act": 1365,
      "up": 1366,
      "yst": 1367,
      "S.": 1368,
      "ile": 1369,
      "▁us": 1370,
      "▁develop": 1371,
      "oll": 1372,
      "ject": 1373,
      "▁University": 1374,
      "ing,": 1375,
      "usic": 1376,
      "ens": 1377,
      "lect": 1378,
      "hed": 1379,
      "anc": 1380,
      "ond": 1381,
      "▁As": 1382,
      "ang": 1383,
      "▁this": 1384,
      "uc": 1385,
      "aw": 1386,
      "▁off": 1387,
      ".S.": 1388,
      "ased": 1389,
      "ual": 1390,
      "hip": 1391,
      "ase": 1392,
      "▁An": 1393,
      "io": 1394,
      "▁3": 1395,
      "man": 1396,
      "gram": 1397,
      "pport": 1398,
      "▁Con": 1399,
      "ree": 1400,
      "ne": 1401,
      "ilm": 1402,
      "▁bo": 1403,
      "ystem": 1404,
      "land": 1405,
      "ress": 1406,
      "rough": 1407,
      "▁stud": 1408,
      "▁ro": 1409,
      "illion": 1410,
      "ail": 1411,
      "▁all": 1412,
      "te": 1413,
      "gan": 1414,
      "▁including": 1415,
      "▁prov": 1416,
      "▁It": 1417,
      "old": 1418,
      "▁ab": 1419,
      "cess": 1420,
      "\nA": 1421,
      "reat": 1422,
      "▁first": 1423,
      "ident": 1424,
      "▁inv": 1425,
      "ement": 1426,
      "oy": 1427,
      "▁De": 1428,
      "▁200": 1429,
      "ternational": 1430,
      "erg": 1431,
      "ert": 1432,
      "▁k": 1433,
      "hen": 1434,
      "ime": 1435,
      "pe": 1436,
      "ame": 1437,
      "▁dis": 1438,
      "▁ag": 1439,
      ".\nA": 1440,
      "▁we": 1441,
      "▁Ar": 1442,
      "rans": 1443,
      "ors": 1444,
      "etw": 1445,
      "▁U.S.": 1446,
      "▁been": 1447,
      "In": 1448,
      "uring": 1449,
      "▁over": 1450,
      "ublic": 1451,
      "ool": 1452,
      "▁art": 1453,
      "ex": 1454,
      "▁world": 1455,
      "▁one": 1456,
      "ath": 1457,
      "oin": 1458,
      "ome": 1459,
      "chnolog": 1460,
      "ely": 1461,
      "▁pr": 1462,
      "ning": 1463,
      "arg": 1464,
      "▁\"": 1465,
      "▁man": 1466,
      "▁her": 1467,
      "▁American": 1468,
      "ite": 1469,
      "ation,": 1470,
      "es.": 1471,
      "row": 1472,
      "wo": 1473,
      "ative": 1474,
      "▁$": 1475,
      "\nThe": 1476,
      "▁des": 1477,
      "▁lead": 1478,
      "▁Cent": 1479,
      "▁reg": 1480,
      "ton": 1481,
      "▁who": 1482,
      "orn": 1483,
      "▁high": 1484,
      "con": 1485,
      "ind": 1486,
      "rib": 1487,
      "▁–": 1488,
      "▁so": 1489,
      "▁program": 1490,
      "\nS": 1491,
      "ital": 1492,
      "▁Award": 1493,
      "eral": 1494,
      "▁research": 1495,
      "▁than": 1496,
      "▁Re": 1497,
      "dition": 1498,
      "eat": 1499,
      "▁pre": 1500,
      "ron": 1501,
      "amp": 1502,
      "▁co": 1503,
      "▁Mar": 1504,
      "▁Ph": 1505,
      "▁through": 1506,
      "chool": 1507,
      "▁imp": 1508,
      "▁other": 1509,
      "ics": 1510,
      "▁commun": 1511,
      "▁Ind": 1512,
      "ren": 1513,
      "▁ra": 1514,
      "ans": 1515,
      "▁For": 1516,
      "roup": 1517,
      "▁&": 1518,
      "▁cons": 1519,
      "ve": 1520,
      "▁National": 1521,
      "▁sa": 1522,
      "o,": 1523,
      "orth": 1524,
      "▁system": 1525,
      "ating": 1526,
      "▁can": 1527,
      "ank": 1528,
      "▁und": 1529,
      "che": 1530,
      "ility": 1531,
      "ember": 1532,
      "ft": 1533,
      "\nC": 1534,
      "▁most": 1535,
      "az": 1536,
      "olle": 1537,
      "▁not": 1538,
      "ision": 1539,
      "▁Sh": 1540,
      "vent": 1541,
      "one": 1542,
      "▁film": 1543,
      "▁count": 1544,
      "▁out": 1545,
      "▁project": 1546,
      "ake": 1547,
      "les": 1548,
      "▁pres": 1549,
      "ious": 1550,
      "air": 1551,
      "ah": 1552,
      "s.\n": 1553,
      "round": 1554,
      "stit": 1555,
      "ural": 1556,
      "▁4": 1557,
      "▁perform": 1558,
      "▁United": 1559,
      "ering": 1560,
      "▁were": 1561,
      "▁support": 1562,
      "cre": 1563,
      "ced": 1564,
      "overn": 1565,
      "ers,": 1566,
      "▁5": 1567,
      "▁trans": 1568,
      "eth": 1569,
      "stitut": 1570,
      "oh": 1571,
      "inal": 1572,
      "▁loc": 1573,
      "ional": 1574,
      "ific": 1575,
      "ose": 1576,
      "alth": 1577,
      "▁up": 1578,
      "▁Comm": 1579,
      "▁inter": 1580,
      "fer": 1581,
      "ower": 1582,
      "20": 1583,
      "▁oper": 1584,
      "fter": 1585,
      "ros": 1586,
      "red": 1587,
      "▁bu": 1588,
      "▁exp": 1589,
      "ick": 1590,
      "▁act": 1591,
      "▁Comp": 1592,
      "son": 1593,
      "ular": 1594,
      "▁two": 1595,
      "▁York": 1596,
      "ied": 1597,
      "irector": 1598,
      "lob": 1599,
      "ently": 1600,
      "ern": 1601,
      "▁Te": 1602,
      "au": 1603,
      "▁am": 1604,
      "▁ar": 1605,
      "▁music": 1606,
      "usin": 1607,
      "ash": 1608,
      "outh": 1609,
      "arket": 1610,
      "000": 1611,
      "19": 1612,
      "ished": 1613,
      "ia,": 1614,
      "aj": 1615,
      "iel": 1616,
      "▁million": 1617,
      "▁such": 1618,
      "▁Le": 1619,
      "▁into": 1620,
      "tt": 1621,
      "ergy": 1622,
      "ys": 1623,
      "▁ed": 1624,
      "▁indu": 1625,
      "▁Sp": 1626,
      "▁sec": 1627,
      "▁Art": 1628,
      "▁em": 1629,
      "▁Ad": 1630,
      "▁well": 1631,
      "▁Cl": 1632,
      "ons": 1633,
      "ould": 1634,
      "▁ann": 1635,
      "▁eff": 1636,
      "ade": 1637,
      "usiness": 1638,
      "fess": 1639,
      "ven": 1640,
      "ck": 1641,
      "ings": 1642,
      "ris": 1643,
      "ock": 1644,
      "▁technolog": 1645,
      "▁US": 1646,
      "eries": 1647,
      "▁our": 1648,
      "gine": 1649,
      "▁rel": 1650,
      "▁ph": 1651,
      "..": 1652,
      "▁development": 1653,
      "▁Res": 1654,
      "▁invest": 1655,
      "ted": 1656,
      "cience": 1657,
      "▁cap": 1658,
      "ral": 1659,
      "▁ent": 1660,
      "ince": 1661,
      "▁pol": 1662,
      "▁spe": 1663,
      "▁cent": 1664,
      "overnment": 1665,
      "▁Or": 1666,
      "\nM": 1667,
      "way": 1668,
      "ll": 1669,
      "▁include": 1670,
      "ival": 1671,
      "▁play": 1672,
      "my": 1673,
      "▁award": 1674,
      "▁indust": 1675,
      "▁design": 1676,
      "ices": 1677,
      "▁me": 1678,
      "▁company": 1679,
      "ribut": 1680,
      "\nB": 1681,
      ").": 1682,
      "ina": 1683,
      "lobal": 1684,
      "ner": 1685,
      "▁gen": 1686,
      "urr": 1687,
      ",000": 1688,
      "▁att": 1689,
      "▁provid": 1690,
      "ures": 1691,
      "▁She": 1692,
      "\nP": 1693,
      "▁sol": 1694,
      "ik": 1695,
      "▁public": 1696,
      "▁exper": 1697,
      "▁adv": 1698,
      "arm": 1699,
      "ces": 1700,
      "▁-": 1701,
      "▁rece": 1702,
      "emb": 1703,
      "use": 1704,
      "ining": 1705,
      "erm": 1706,
      "ix": 1707,
      "▁Bl": 1708,
      "▁Is": 1709,
      "-b": 1710,
      "day": 1711,
      "ission": 1712,
      "▁about": 1713,
      "ley": 1714,
      "ww": 1715,
      ".”": 1716,
      "▁Ex": 1717,
      "▁pe": 1718,
      "enn": 1719,
      "▁qu": 1720,
      "uro": 1721,
      "▁199": 1722,
      "▁ne": 1723,
      "▁under": 1724,
      "▁organ": 1725,
      "por": 1726,
      "▁Ac": 1727,
      "ann": 1728,
      "conom": 1729,
      "▁Car": 1730,
      "▁said": 1731,
      "-s": 1732,
      "iew": 1733,
      "▁This": 1734,
      "▁kn": 1735,
      "soci": 1736,
      "▁ear": 1737,
      "▁found": 1738,
      "att": 1739,
      "ug": 1740,
      "ook": 1741,
      "\nT": 1742,
      "ross": 1743,
      "ett": 1744,
      "ments": 1745,
      "▁med": 1746,
      "ier": 1747,
      "ists": 1748,
      "raph": 1749,
      "▁she": 1750,
      "▁ass": 1751,
      "ohn": 1752,
      "ife": 1753,
      "r.": 1754,
      "▁feat": 1755,
      "ield": 1756,
      "ople": 1757,
      "ines": 1758,
      "abor": 1759,
      "▁Pres": 1760,
      "▁Z": 1761,
      "▁fac": 1762,
      "▁years": 1763,
      "ized": 1764,
      "ract": 1765,
      "▁sub": 1766,
      "ety": 1767,
      "een": 1768,
      "ict": 1769,
      "ues": 1770,
      "etwork": 1771,
      "ise": 1772,
      "its": 1773,
      ".\nS": 1774,
      "ata": 1775,
      "▁market": 1776,
      "ek": 1777,
      "inist": 1778,
      "wn": 1779,
      "▁many": 1780,
      "▁Pl": 1781,
      "▁est": 1782,
      "▁States": 1783,
      "ator": 1784,
      "\nF": 1785,
      "▁ind": 1786,
      "▁sign": 1787,
      "▁sc": 1788,
      "road": 1789,
      "▁cre": 1790,
      "ale": 1791,
      "ym": 1792,
      "-t": 1793,
      "ange": 1794,
      "uss": 1795,
      "on,": 1796,
      "▁rele": 1797,
      "▁inf": 1798,
      "ful": 1799,
      "ars": 1800,
      "abl": 1801,
      "▁city": 1802,
      "▁build": 1803,
      "▁7": 1804,
      "▁hist": 1805,
      "ives": 1806,
      "▁18": 1807,
      "stru": 1808,
      "a.": 1809,
      "ies,": 1810,
      ".\nIn": 1811,
      "▁contin": 1812,
      "▁International": 1813,
      "▁Q": 1814,
      "▁Can": 1815,
      "ajor": 1816,
      "ived": 1817,
      "▁air": 1818,
      "cent": 1819,
      "▁City": 1820,
      "ows": 1821,
      "amil": 1822,
      "artment": 1823,
      "eb": 1824,
      "▁Cal": 1825,
      "▁6": 1826,
      "▁Air": 1827,
      "▁num": 1828,
      "▁fl": 1829,
      "i,": 1830,
      "▁mod": 1831,
      "ered": 1832,
      "▁elect": 1833,
      "▁hel": 1834,
      "▁Co": 1835,
      "ring": 1836,
      "y.": 1837,
      "▁business": 1838,
      "ization": 1839,
      "ins": 1840,
      "▁Fran": 1841,
      "▁international": 1842,
      "ike": 1843,
      "▁pop": 1844,
      "▁where": 1845,
      "pen": 1846,
      "iron": 1847,
      "ership": 1848,
      "▁had": 1849,
      "\nD": 1850,
      "▁they": 1851,
      "▁acc": 1852,
      "▁Med": 1853,
      "estival": 1854,
      "▁John": 1855,
      "▁after": 1856,
      "▁Center": 1857,
      "▁government": 1858,
      "rate": 1859,
      "▁help": 1860,
      "▁record": 1861,
      "adem": 1862,
      "▁grow": 1863,
      "▁state": 1864,
      "▁World": 1865,
      "rid": 1866,
      "▁Euro": 1867,
      "▁Se": 1868,
      "very": 1869,
      "▁Tra": 1870,
      "ograph": 1871,
      "▁Music": 1872,
      "▁mov": 1873,
      "▁but": 1874,
      "ouse": 1875,
      "▁group": 1876,
      "formation": 1877,
      "urn": 1878,
      "▁Dep": 1879,
      "ism": 1880,
      "▁manag": 1881,
      "ene": 1882,
      "etween": 1883,
      "▁Man": 1884,
      "oint": 1885,
      "▁Wh": 1886,
      "▁resp": 1887,
      "▁Af": 1888,
      "▁comple": 1889,
      "▁North": 1890,
      "viron": 1891,
      "▁larg": 1892,
      "▁incre": 1893,
      "▁curr": 1894,
      "▁State": 1895,
      "▁gra": 1896,
      "▁care": 1897,
      "iver": 1898,
      "erson": 1899,
      ".\nC": 1900,
      "EE": 1901,
      "urity": 1902,
      "▁three": 1903,
      "aking": 1904,
      "ium": 1905,
      "▁educ": 1906,
      "▁during": 1907,
      "ency": 1908,
      "▁dist": 1909,
      "▁San": 1910,
      "ration": 1911,
      "vironment": 1912,
      "ull": 1913,
      ".\nM": 1914,
      "▁econom": 1915,
      "▁energy": 1916,
      "▁series": 1917,
      "ax": 1918,
      "▁fund": 1919,
      "▁10": 1920,
      "-f": 1921,
      "-p": 1922,
      "▁people": 1923,
      "yn": 1924,
      "▁School": 1925,
      "ilit": 1926,
      ".\nT": 1927,
      "de": 1928,
      "▁Institut": 1929,
      "uman": 1930,
      "▁team": 1931,
      "▁global": 1932,
      "▁addition": 1933,
      "▁ret": 1934,
      "▁health": 1935,
      "▁rem": 1936,
      "▁compan": 1937,
      "ough": 1938,
      "▁bl": 1939,
      "ries": 1940,
      "rov": 1941,
      "an,": 1942,
      "▁So": 1943,
      "ink": 1944,
      "▁between": 1945,
      "ony": 1946,
      "▁198": 1947,
      "▁8": 1948,
      "▁War": 1949,
      "ober": 1950,
      "▁major": 1951,
      "▁community": 1952,
      "aint": 1953,
      "▁var": 1954,
      "▁fin": 1955,
      "▁Be": 1956,
      "▁form": 1957,
      "le,": 1958,
      "ollow": 1959,
      "led": 1960,
      "ington": 1961,
      "ER": 1962,
      "▁vis": 1963,
      "uth": 1964,
      "ecut": 1965,
      "ruct": 1966,
      "ubl": 1967,
      "▁mult": 1968,
      "▁la": 1969,
      "\nW": 1970,
      "ights": 1971,
      "1,": 1972,
      "▁ext": 1973,
      "▁time": 1974,
      "▁both": 1975,
      "▁South": 1976,
      "▁rep": 1977,
      "s:": 1978,
      "ient": 1979,
      "\nR": 1980,
      "▁these": 1981,
      "▁do": 1982,
      "veral": 1983,
      "iqu": 1984,
      "▁report": 1985,
      "▁product": 1986,
      "\nN": 1987,
      "ocus": 1988,
      "▁production": 1989,
      "▁Canad": 1990,
      "▁Col": 1991,
      "▁We": 1992,
      "nov": 1993,
      "▁President": 1994,
      "▁pos": 1995,
      "▁gu": 1996,
      "ont": 1997,
      "▁Gu": 1998,
      "ploy": 1999,
      "▁national": 2000,
      "▁known": 2001,
      "CS": 2002,
      "▁mon": 2003,
      "lev": 2004,
      "▁Colle": 2005,
      "ience": 2006,
      "ays": 2007,
      "iam": 2008,
      "fic": 2009,
      "▁car": 2010,
      "chest": 2011,
      "irect": 2012,
      "amed": 2013,
      "icip": 2014,
      "▁made": 2015,
      "▁Europe": 2016,
      "▁9": 2017,
      "iforn": 2018,
      "▁profess": 2019,
      "ible": 2020,
      "▁network": 2021,
      "ants": 2022,
      "ion,": 2023,
      "▁Cor": 2024,
      "▁Am": 2025,
      "une": 2026,
      "AR": 2027,
      "▁Ge": 2028,
      "▁offic": 2029,
      "rop": 2030,
      "▁show": 2031,
      "rand": 2032,
      "▁school": 2033,
      "eng": 2034,
      "▁sur": 2035,
      "ogn": 2036,
      "ES": 2037,
      "sp": 2038,
      "▁bec": 2039,
      "ers.": 2040,
      "▁power": 2041,
      "▁del": 2042,
      "▁writ": 2043,
      "▁2022": 2044,
      "sh": 2045,
      "▁across": 2046,
      "ets": 2047,
      "▁Park": 2048,
      "▁Department": 2049,
      "▁sm": 2050,
      "\nL": 2051,
      "ured": 2052,
      "▁data": 2053,
      "▁Pol": 2054,
      "eh": 2055,
      "ney": 2056,
      "org": 2057,
      "uter": 2058,
      "AS": 2059,
      "ality": 2060,
      "ty": 2061,
      "▁His": 2062,
      "▁Rep": 2063,
      "▁colle": 2064,
      "▁Pr": 2065,
      "▁Californ": 2066,
      "▁Found": 2067,
      "▁prom": 2068,
      "omen": 2069,
      "▁On": 2070,
      "▁At": 2071,
      "▁received": 2072,
      "▁largest": 2073,
      "lor": 2074,
      "▁add": 2075,
      "▁local": 2076,
      "▁dec": 2077,
      "ior": 2078,
      "▁red": 2079,
      "▁industry": 2080,
      "▁Afric": 2081,
      "▁West": 2082,
      "AN": 2083,
      "▁open": 2084,
      "riz": 2085,
      "view": 2086,
      "▁av": 2087,
      "▁ev": 2088,
      "▁long": 2089,
      "▁announ": 2090,
      "bum": 2091,
      "anding": 2092,
      ".com": 2093,
      "▁activ": 2094,
      "▁focus": 2095,
      "▁own": 2096,
      "\nH": 2097,
      "▁several": 2098,
      "▁suc": 2099,
      "ly,": 2100,
      "▁Associ": 2101,
      "gineering": 2102,
      "50": 2103,
      ".\nP": 2104,
      "ele": 2105,
      "▁Sec": 2106,
      "ai": 2107,
      "ed,": 2108,
      "imate": 2109,
      "▁dem": 2110,
      "▁call": 2111,
      "co": 2112,
      "▁when": 2113,
      ".\nB": 2114,
      "▁Ber": 2115,
      "let": 2116,
      "cient": 2117,
      "▁Off": 2118,
      "▁law": 2119,
      "▁And": 2120,
      "▁them": 2121,
      ".\nF": 2122,
      "▁Ag": 2123,
      "i-": 2124,
      "▁sing": 2125,
      "als": 2126,
      "aster": 2127,
      "els": 2128,
      "▁197": 2129,
      "cert": 2130,
      "▁prot": 2131,
      "\nE": 2132,
      "▁All": 2133,
      "▁Institute": 2134,
      "ames": 2135,
      ".,": 2136,
      "int": 2137,
      "▁use": 2138,
      "uthor": 2139,
      "▁some": 2140,
      "itt": 2141,
      "▁Festival": 2142,
      "▁director": 2143,
      "eration": 2144,
      "▁technology": 2145,
      "▁coll": 2146,
      "ability": 2147,
      "▁Research": 2148,
      "▁Director": 2149,
      "▁while": 2150,
      "hem": 2151,
      "▁Army": 2152,
      "ury": 2153,
      "-w": 2154,
      "▁leg": 2155,
      "▁Pa": 2156,
      "▁import": 2157,
      "▁four": 2158,
      "arge": 2159,
      "ten": 2160,
      "▁establ": 2161,
      "▁country": 2162,
      "ection": 2163,
      "▁Group": 2164,
      "uf": 2165,
      "▁information": 2166,
      "ext": 2167,
      "ands": 2168,
      "▁Stud": 2169,
      "▁Har": 2170,
      "ected": 2171,
      "//": 2172,
      "▁used": 2173,
      "ired": 2174,
      ".\nH": 2175,
      ",”": 2176,
      "ution": 2177,
      "ilities": 2178,
      "▁contribut": 2179,
      "▁Bo": 2180,
      "▁since": 2181,
      "▁win": 2182,
      "▁Count": 2183,
      "▁‘": 2184,
      "▁Ab": 2185,
      "come": 2186,
      "ences": 2187,
      "rateg": 2188,
      "ederal": 2189,
      "▁won": 2190,
      "rist": 2191,
      "▁follow": 2192,
      "▁direct": 2193,
      "ason": 2194,
      "eter": 2195,
      "▁end": 2196,
      "urs": 2197,
      "▁Gen": 2198,
      "▁(C": 2199,
      "iving": 2200,
      "▁only": 2201,
      "-based": 2202,
      "▁Her": 2203,
      "▁Aust": 2204,
      "omin": 2205,
      "▁among": 2206,
      "oot": 2207,
      "▁famil": 2208,
      "cept": 2209,
      "▁top": 2210,
      "▁around": 2211,
      "ense": 2212,
      "▁def": 2213,
      "ashington": 2214,
      "5,": 2215,
      "▁partn": 2216,
      "▁special": 2217,
      "itor": 2218,
      "▁Phil": 2219,
      "▁students": 2220,
      "ically": 2221,
      "▁Su": 2222,
      "iginal": 2223,
      "rol": 2224,
      "▁join": 2225,
      "▁memb": 2226,
      "▁recogn": 2227,
      "▁May": 2228,
      "▁environment": 2229,
      "▁present": 2230,
      "rict": 2231,
      "\nJ": 2232,
      "ttp": 2233,
      "▁cor": 2234,
      "▁Jan": 2235,
      "▁ob": 2236,
      "▁cell": 2237,
      "▁success": 2238,
      "IN": 2239,
      "resent": 2240,
      "▁would": 2241,
      "ON": 2242,
      "thern": 2243,
      "pr": 2244,
      "ential": 2245,
      "▁Em": 2246,
      "lement": 2247,
      "▁album": 2248,
      "ilitary": 2249,
      "▁requ": 2250,
      "▁cult": 2251,
      "▁Academ": 2252,
      "3,": 2253,
      "▁disc": 2254,
      "▁Bar": 2255,
      "orts": 2256,
      "gin": 2257,
      "▁best": 2258,
      "hes": 2259,
      "▁equ": 2260,
      "▁iss": 2261,
      "AT": 2262,
      "▁companies": 2263,
      "iti": 2264,
      "▁Sc": 2265,
      "▁class": 2266,
      "▁dr": 2267,
      "eleb": 2268,
      "ief": 2269,
      ".\nD": 2270,
      "pos": 2271,
      "▁Science": 2272,
      "7,": 2273,
      "raft": 2274,
      "ford": 2275,
      "fore": 2276,
      "ufact": 2277,
      "er.": 2278,
      "ctions": 2279,
      "▁member": 2280,
      "▁Oper": 2281,
      "\\\\": 2282,
      "ations,": 2283,
      "▁book": 2284,
      "-l": 2285,
      "ourn": 2286,
      "oung": 2287,
      "▁process": 2288,
      "▁provide": 2289,
      "ecutive": 2290,
      "duc": 2291,
      "ret": 2292,
      "▁Ang": 2293,
      "▁billion": 2294,
      "ird": 2295,
      "duate": 2296,
      "levision": 2297,
      "reen": 2298,
      "▁need": 2299,
      "▁collabor": 2300,
      "▁La": 2301,
      "ation.": 2302,
      "irm": 2303,
      "▁camp": 2304,
      "-d": 2305,
      "▁based": 2306,
      "▁start": 2307,
      "▁non": 2308,
      "IS": 2309,
      "ott": 2310,
      "▁now": 2311,
      "▁science": 2312,
      "his": 2313,
      "▁Par": 2314,
      "▁field": 2315,
      "6,": 2316,
      "▁196": 2317,
      "▁Washington": 2318,
      "▁you": 2319,
      "ature": 2320,
      "10": 2321,
      "▁again": 2322,
      "▁like": 2323,
      "key": 2324,
      "iev": 2325,
      "2,": 2326,
      "▁(S": 2327,
      "▁America": 2328,
      "▁includes": 2329,
      "▁Mc": 2330,
      "▁near": 2331,
      "useum": 2332,
      "atic": 2333,
      "▁col": 2334,
      "▁go": 2335,
      "▁along": 2336,
      "ize": 2337,
      "ay,": 2338,
      "▁Dav": 2339,
      "▁publ": 2340,
      "yl": 2341,
      "alk": 2342,
      "OR": 2343,
      "▁area": 2344,
      "▁result": 2345,
      "duct": 2346,
      "▁services": 2347,
      "▁port": 2348,
      "▁innov": 2349,
      "rant": 2350,
      ".\nW": 2351,
      "4,": 2352,
      "▁Im": 2353,
      "onor": 2354,
      "\nG": 2355,
      "▁Rec": 2356,
      "ustom": 2357,
      "olv": 2358,
      "▁stor": 2359,
      "▁dif": 2360,
      "▁named": 2361,
      "ined": 2362,
      "▁leading": 2363,
      "▁Hist": 2364,
      "ructure": 2365,
      "▁home": 2366,
      "▁access": 2367,
      "▁appear": 2368,
      "ee": 2369,
      "▁role": 2370,
      "ording": 2371,
      "aterial": 2372,
      ".\n“": 2373,
      "▁laun": 2374,
      "\nIn": 2375,
      "▁number": 2376,
      "uel": 2377,
      "cific": 2378,
      "obile": 2379,
      "atory": 2380,
      "\nO": 2381,
      "▁second": 2382,
      "▁back": 2383,
      "-m": 2384,
      "ept": 2385,
      "▁expl": 2386,
      "ages": 2387,
      "ote": 2388,
      "line": 2389,
      "in,": 2390,
      "▁appro": 2391,
      "▁Ju": 2392,
      "▁lear": 2393,
      "▁artist": 2394,
      "▁building": 2395,
      "▁event": 2396,
      "fit": 2397,
      "▁histor": 2398,
      "▁working": 2399,
      "▁California": 2400,
      "▁service": 2401,
      "▁early": 2402,
      "chestra": 2403,
      "▁With": 2404,
      "elf": 2405,
      "▁served": 2406,
      "▁child": 2407,
      "atre": 2408,
      "is,": 2409,
      "mercial": 2410,
      "as,": 2411,
      "ancial": 2412,
      "0,": 2413,
      "der": 2414,
      "ivate": 2415,
      "▁Dist": 2416,
      "IT": 2417,
      "ases": 2418,
      "▁Film": 2419,
      "other": 2420,
      "▁how": 2421,
      "▁Act": 2422,
      "▁human": 2423,
      "▁Eng": 2424,
      "▁Part": 2425,
      "▁pass": 2426,
      "pportun": 2427,
      "ument": 2428,
      "▁met": 2429,
      "▁signific": 2430,
      "igital": 2431,
      "▁dep": 2432,
      "▁Serv": 2433,
      "iet": 2434,
      "▁det": 2435,
      "▁cour": 2436,
      "▁Reg": 2437,
      "▁2023": 2438,
      "minist": 2439,
      "AC": 2440,
      "rated": 2441,
      "cc": 2442,
      "▁announced": 2443,
      "▁polic": 2444,
      "ains": 2445,
      "▁Per": 2446,
      "9,": 2447,
      "▁countries": 2448,
      "ask": 2449,
      "o.": 2450,
      "▁stat": 2451,
      "▁Will": 2452,
      "ble": 2453,
      "▁life": 2454,
      "▁became": 2455,
      "▁deb": 2456,
      "▁crit": 2457,
      "▁pat": 2458,
      "ing.": 2459,
      "▁began": 2460,
      "urch": 2461,
      "201": 2462,
      "cip": 2463,
      "iol": 2464,
      "atural": 2465,
      "urg": 2466,
      "▁head": 2467,
      "▁manufact": 2468,
      "oph": 2469,
      "ever": 2470,
      "▁Mich": 2471,
      "1.": 2472,
      "uture": 2473,
      "rial": 2474,
      "▁Sym": 2475,
      "8,": 2476,
      "▁commit": 2477,
      "▁—": 2478,
      "▁Ed": 2479,
      "IC": 2480,
      "▁water": 2481,
      "ove": 2482,
      "▁tim": 2483,
      "▁Inc": 2484,
      "▁(P": 2485,
      "aim": 2486,
      "▁Technolog": 2487,
      "▁social": 2488,
      ".\nR": 2489,
      "▁Nov": 2490,
      "ulation": 2491,
      "rem": 2492,
      "ances": 2493,
      "▁March": 2494,
      "▁To": 2495,
      "▁management": 2496,
      "▁comb": 2497,
      "▁training": 2498,
      "▁author": 2499,
      "▁China": 2500,
      "chit": 2501,
      "struction": 2502,
      "reet": 2503,
      ".D": 2504,
      "▁being": 2505,
      "ev": 2506,
      "▁interest": 2507,
      "ery": 2508,
      "ately": 2509,
      "▁aut": 2510,
      "▁applic": 2511,
      "▁College": 2512,
      "uch": 2513,
      "▁(N": 2514,
      "▁avail": 2515,
      "▁bi": 2516,
      "▁currently": 2517,
      "osp": 2518,
      "▁released": 2519,
      "rug": 2520,
      "▁significant": 2521,
      "▁polit": 2522,
      "▁Sch": 2523,
      "▁former": 2524,
      "chitect": 2525,
      "▁may": 2526,
      "en,": 2527,
      "af": 2528,
      "▁ren": 2529,
      "▁Academy": 2530,
      "ipp": 2531,
      "▁real": 2532,
      "▁projects": 2533,
      "▁El": 2534,
      "ivid": 2535,
      "▁original": 2536,
      "▁Commun": 2537,
      "ael": 2538,
      "▁experience": 2539,
      "▁economic": 2540,
      "▁Hall": 2541,
      "ivil": 2542,
      "▁song": 2543,
      "▁custom": 2544,
      "US": 2545,
      "▁performance": 2546,
      "▁percent": 2547,
      "▁person": 2548,
      "▁opportun": 2549,
      "ference": 2550,
      "▁strateg": 2551,
      "side": 2552,
      "▁Angel": 2553,
      "BC": 2554,
      "▁(M": 2555,
      "uary": 2556,
      "▁Brit": 2557,
      "▁president": 2558,
      "ather": 2559,
      "30": 2560,
      "▁rest": 2561,
      "▁Jap": 2562,
      "▁deg": 2563,
      "▁broad": 2564,
      "vers": 2565,
      "▁last": 2566,
      "-c": 2567,
      "▁visit": 2568,
      "▁creat": 2569,
      "vious": 2570,
      "▁Gra": 2571,
      "ournal": 2572,
      "▁Program": 2573,
      "lear": 2574,
      "▁host": 2575,
      "ey": 2576,
      "▁teach": 2577,
      "▁Dis": 2578,
      "akes": 2579,
      "▁growth": 2580,
      "icle": 2581,
      "▁anal": 2582,
      "ciety": 2583,
      "▁large": 2584,
      "▁compet": 2585,
      "▁post": 2586,
      "ideo": 2587,
      "▁make": 2588,
      "▁him": 2589,
      "rast": 2590,
      "ether": 2591,
      "▁ant": 2592,
      "▁Russ": 2593,
      "of": 2594,
      "ream": 2595,
      "erman": 2596,
      "▁cost": 2597,
      "▁small": 2598,
      "▁celeb": 2599,
      "▁five": 2600,
      "▁(A": 2601,
      "▁employ": 2602,
      "▁today": 2603,
      "bor": 2604,
      "ued": 2605,
      "w.": 2606,
      "keley": 2607,
      "▁just": 2608,
      "▁level": 2609,
      "anced": 2610,
      "▁supp": 2611,
      "ware": 2612,
      "▁there": 2613,
      "▁June": 2614,
      "ained": 2615,
      "▁Cont": 2616,
      "▁min": 2617,
      "▁Oct": 2618,
      "▁security": 2619,
      "ung": 2620,
      "ban": 2621,
      "-1": 2622,
      "▁great": 2623,
      "pecial": 2624,
      "▁produc": 2625,
      "▁history": 2626,
      "▁compos": 2627,
      "▁Qu": 2628,
      "▁led": 2629,
      "▁particip": 2630,
      "ised": 2631,
      "▁App": 2632,
      ".\nO": 2633,
      "ified": 2634,
      "AL": 2635,
      "▁material": 2636,
      "ource": 2637,
      "▁commercial": 2638,
      "ique": 2639,
      "▁any": 2640,
      "ources": 2641,
      "▁members": 2642,
      "rize": 2643,
      "▁Cons": 2644,
      "▁Tim": 2645,
      "-C": 2646,
      "aff": 2647,
      "ector": 2648,
      "▁Sw": 2649,
      "lu": 2650,
      "atch": 2651,
      "-S": 2652,
      "pril": 2653,
      "▁Pe": 2654,
      "▁Orchestra": 2655,
      "▁professional": 2656,
      "▁Char": 2657,
      "▁land": 2658,
      "▁effect": 2659,
      "rew": 2660,
      "usical": 2661,
      "200": 2662,
      "▁scient": 2663,
      "▁important": 2664,
      "app": 2665,
      "www.": 2666,
      "ID": 2667,
      "oor": 2668,
      "▁Develop": 2669,
      "▁impact": 2670,
      "▁available": 2671,
      "exic": 2672,
      "▁(19": 2673,
      "umb": 2674,
      "▁Cap": 2675,
      "▁Best": 2676,
      "onic": 2677,
      "▁official": 2678,
      "▁institut": 2679,
      "▁val": 2680,
      "▁every": 2681,
      "standing": 2682,
      "EN": 2683,
      "rim": 2684,
      "umn": 2685,
      "ched": 2686,
      "▁pract": 2687,
      "▁systems": 2688,
      "▁military": 2689,
      "▁King": 2690,
      "by": 2691,
      "less": 2692,
      "▁Los": 2693,
      "▁Black": 2694,
      "▁annual": 2695,
      "▁each": 2696,
      "▁investment": 2697,
      "iles": 2698,
      "▁located": 2699,
      "▁|": 2700,
      "▁worked": 2701,
      "hib": 2702,
      "EO": 2703,
      "andard": 2704,
      "▁television": 2705,
      "▁12": 2706,
      "▁plan": 2707,
      "▁Ro": 2708,
      "▁set": 2709,
      "lin": 2710,
      "ilt": 2711,
      "▁ref": 2712,
      "▁Indian": 2713,
      "▁before": 2714,
      "▁Profess": 2715,
      "▁15": 2716,
      "▁Arts": 2717,
      "ones": 2718,
      "▁2017": 2719,
      "f.": 2720,
      "▁imm": 2721,
      "▁full": 2722,
      "epend": 2723,
      "▁Island": 2724,
      "▁career": 2725,
      "▁within": 2726,
      "ino": 2727,
      "▁doc": 2728,
      "ology": 2729,
      "▁place": 2730,
      "▁dev": 2731,
      "ille": 2732,
      "▁General": 2733,
      "ications": 2734,
      "▁no": 2735,
      "erous": 2736,
      "comm": 2737,
      "▁System": 2738,
      "cast": 2739,
      "ively": 2740,
      "▁student": 2741,
      "▁list": 2742,
      "▁then": 2743,
      "▁Austral": 2744,
      "▁space": 2745,
      "vest": 2746,
      "▁ris": 2747,
      "▁'": 2748,
      "ics,": 2749,
      "lex": 2750,
      "▁study": 2751,
      "rong": 2752,
      "▁bel": 2753,
      "▁Des": 2754,
      "▁against": 2755,
      "▁food": 2756,
      "-A": 2757,
      "▁war": 2758,
      "▁called": 2759,
      "▁week": 2760,
      "▁Coun": 2761,
      "▁held": 2762,
      "rodu": 2763,
      "▁Sen": 2764,
      "▁areas": 2765,
      "▁17": 2766,
      "ox": 2767,
      "▁month": 2768,
      "▁Fell": 2769,
      "ditional": 2770,
      "▁mar": 2771,
      "▁region": 2772,
      "atform": 2773,
      "ared": 2774,
      "yd": 2775,
      "▁test": 2776,
      "▁rad": 2777,
      "cil": 2778,
      "▁Ass": 2779,
      "▁Ann": 2780,
      "▁They": 2781,
      "azz": 2782,
      "▁organization": 2783,
      "iven": 2784,
      "▁Sept": 2785,
      "▁private": 2786,
      "▁sk": 2787,
      "▁Bank": 2788,
      "▁star": 2789,
      "ball": 2790,
      "ia.": 2791,
      "▁Bro": 2792,
      "▁provides": 2793,
      "inn": 2794,
      "al,": 2795,
      "▁II": 2796,
      "▁Kore": 2797,
      "▁Foundation": 2798,
      "▁Symph": 2799,
      "▁Aug": 2800,
      "▁represent": 2801,
      "▁works": 2802,
      "▁Mexic": 2803,
      "ption": 2804,
      "▁capital": 2805,
      "▁integ": 2806,
      "a’s": 2807,
      "e.": 2808,
      "▁prem": 2809,
      "ause": 2810,
      "▁Christ": 2811,
      "▁Day": 2812,
      "▁2015": 2813,
      "▁tour": 2814,
      "▁main": 2815,
      "ean": 2816,
      "▁Law": 2817,
      "▁194": 2818,
      "rastructure": 2819,
      "▁Feb": 2820,
      ".\nN": 2821,
      "▁phot": 2822,
      "ged": 2823,
      "▁recently": 2824,
      "▁future": 2825,
      "▁down": 2826,
      "▁various": 2827,
      "▁conn": 2828,
      "▁How": 2829,
      "oss": 2830,
      "▁Health": 2831,
      "the": 2832,
      "▁techn": 2833,
      "▁published": 2834,
      "▁April": 2835,
      "▁developed": 2836,
      "▁established": 2837,
      "▁East": 2838,
      "ainment": 2839,
      "-M": 2840,
      "▁financial": 2841,
      "alt": 2842,
      "wide": 2843,
      "▁those": 2844,
      "▁Association": 2845,
      "▁computer": 2846,
      "rad": 2847,
      "▁char": 2848,
      "▁aff": 2849,
      "ination": 2850,
      "▁David": 2851,
      "▁sim": 2852,
      "▁consum": 2853,
      "ry,": 2854,
      "uck": 2855,
      "▁women": 2856,
      "▁federal": 2857,
      "▁fe": 2858,
      "▁2016": 2859,
      "▁Mon": 2860,
      "▁High": 2861,
      "▁January": 2862,
      "▁Japan": 2863,
      "▁differ": 2864,
      "▁Tex": 2865,
      ".\nL": 2866,
      "ts": 2867,
      "▁These": 2868,
      "chiev": 2869,
      "yp": 2870,
      "▁live": 2871,
      "▁organiz": 2872,
      "ients": 2873,
      "▁band": 2874,
      "▁par": 2875,
      "asing": 2876,
      "▁Energy": 2877,
      "cis": 2878,
      "▁low": 2879,
      "ies.": 2880,
      "▁meet": 2881,
      "year": 2882,
      ".\nE": 2883,
      "read": 2884,
      "ned": 2885,
      "ividual": 2886,
      "itive": 2887,
      "▁TV": 2888,
      "ental": 2889,
      "atter": 2890,
      "ness": 2891,
      "idd": 2892,
      "▁communities": 2893,
      "▁popular": 2894,
      "▁Theatre": 2895,
      "▁Museum": 2896,
      "▁Int": 2897,
      "orm": 2898,
      "\nI": 2899,
      "▁education": 2900,
      "ends": 2901,
      "ended": 2902,
      "▁Development": 2903,
      "▁Val": 2904,
      "▁Sm": 2905,
      "▁conduct": 2906,
      "▁exc": 2907,
      "▁October": 2908,
      "berg": 2909,
      "▁Company": 2910,
      ".\"": 2911,
      "▁natural": 2912,
      "DA": 2913,
      "amb": 2914,
      "▁climate": 2915,
      "ling": 2916,
      "el,": 2917,
      "rum": 2918,
      "▁ens": 2919,
      "▁honor": 2920,
      "▁Berkeley": 2921,
      "tal": 2922,
      "▁sust": 2923,
      "▁European": 2924,
      "ivision": 2925,
      "▁inst": 2926,
      "aut": 2927,
      "-19": 2928,
      "▁aud": 2929,
      "▁House": 2930,
      "aus": 2931,
      "▁created": 2932,
      "ians": 2933,
      "▁30": 2934,
      "▁run": 2935,
      "craft": 2936,
      "▁conf": 2937,
      "▁throughout": 2938,
      "▁saf": 2939,
      "edic": 2940,
      "iter": 2941,
      "force": 2942,
      "reg": 2943,
      "▁children": 2944,
      "▁Manag": 2945,
      "▁Trans": 2946,
      "▁100": 2947,
      "▁involv": 2948,
      "ements": 2949,
      "▁cover": 2950,
      "▁Bu": 2951,
      "hest": 2952,
      "▁associ": 2953,
      "urther": 2954,
      "▁veh": 2955,
      "▁included": 2956,
      "ily": 2957,
      "▁concert": 2958,
      "▁improv": 2959,
      "▁eng": 2960,
      "▁Street": 2961,
      "-in": 2962,
      "▁short": 2963,
      "obert": 2964,
      "cem": 2965,
      "▁digital": 2966,
      "▁range": 2967,
      "bs": 2968,
      "ellig": 2969,
      "▁assist": 2970,
      "▁2020": 2971,
      "▁http": 2972,
      "ruary": 2973,
      "2.": 2974,
      "▁produced": 2975,
      "▁bene": 2976,
      "s://": 2977,
      "▁$1": 2978,
      "▁2018": 2979,
      "lo": 2980,
      "▁six": 2981,
      "▁could": 2982,
      "▁Lond": 2983,
      "wood": 2984,
      "▁programs": 2985,
      "orge": 2986,
      "ummer": 2987,
      "▁performed": 2988,
      "▁recent": 2989,
      "▁fre": 2990,
      "▁respons": 2991,
      "ush": 2992,
      "▁family": 2993,
      "-g": 2994,
      "▁acqu": 2995,
      "vis": 2996,
      "▁Force": 2997,
      "▁Educ": 2998,
      "▁50": 2999,
      "sc": 3000,
      "▁September": 3001,
      "▁Bi": 3002,
      "cember": 3003,
      "▁hold": 3004,
      "▁day": 3005,
      "▁Engineering": 3006,
      "olution": 3007,
      "▁2021": 3008,
      "▁Ital": 3009,
      "▁initi": 3010,
      "▁(B": 3011,
      "▁using": 3012,
      "ored": 3013,
      "rior": 3014,
      "▁(D": 3015,
      "▁firm": 3016,
      "ole": 3017,
      "▁Public": 3018,
      "▁Nav": 3019,
      "▁Port": 3020,
      "ure,": 3021,
      "▁oth": 3022,
      "outhern": 3023,
      "▁Br": 3024,
      "▁tit": 3025,
      "bon": 3026,
      "EC": 3027,
      "▁platform": 3028,
      "▁British": 3029,
      "▁Me": 3030,
      "-year": 3031,
      "▁term": 3032,
      "ront": 3033,
      "AM": 3034,
      "angu": 3035,
      "acy": 3036,
      "ators": 3037,
      "augh": 3038,
      "▁individual": 3039,
      "▁pot": 3040,
      "▁/": 3041,
      "▁Prof.": 3042,
      "▁August": 3043,
      "▁November": 3044,
      "▁Mor": 3045,
      "▁next": 3046,
      "▁viol": 3047,
      "▁Def": 3048,
      "ine,": 3049,
      "▁William": 3050,
      "▁debut": 3051,
      "▁X": 3052,
      "▁July": 3053,
      "ulty": 3054,
      "▁later": 3055,
      "▁CO": 3056,
      "irc": 3057,
      "▁11": 3058,
      "▁German": 3059,
      "▁past": 3060,
      "▁key": 3061,
      "▁Sal": 3062,
      "▁Council": 3063,
      "▁control": 3064,
      "▁2019": 3065,
      "▁sit": 3066,
      "3.": 3067,
      "lected": 3068,
      "\nU": 3069,
      ".D.": 3070,
      "▁products": 3071,
      "▁chall": 3072,
      "▁ins": 3073,
      "▁vari": 3074,
      "▁Ste": 3075,
      "▁195": 3076,
      "ham": 3077,
      "▁years,": 3078,
      "ald": 3079,
      "▁distribut": 3080,
      "▁proper": 3081,
      "▁News": 3082,
      "▁successful": 3083,
      "▁chang": 3084,
      "▁dise": 3085,
      "...": 3086,
      "▁document": 3087,
      "▁Professor": 3088,
      "▁engine": 3089,
      "ane": 3090,
      "▁Prize": 3091,
      "-st": 3092,
      "▁Vir": 3093,
      "rench": 3094,
      "▁Minist": 3095,
      "▁current": 3096,
      ".\nG": 3097,
      "▁16": 3098,
      "▁video": 3099,
      "▁Fl": 3100,
      "ever,": 3101,
      "▁You": 3102,
      "ms": 3103,
      "▁CEO": 3104,
      "ify": 3105,
      "▁young": 3106,
      "▁inc": 3107,
      "▁February": 3108,
      "ice,": 3109,
      "▁media": 3110,
      "ronic": 3111,
      "▁create": 3112,
      "▁Gold": 3113,
      "▁position": 3114,
      "▁take": 3115,
      "merg": 3116,
      "ibr": 3117,
      "lean": 3118,
      "▁Society": 3119,
      "oman": 3120,
      "▁Cong": 3121,
      "▁Elect": 3122,
      "▁“The": 3123,
      "agn": 3124,
      "▁soft": 3125,
      "▁tog": 3126,
      "itar": 3127,
      "emor": 3128,
      "▁different": 3129,
      "▁following": 3130,
      "▁Dr.": 3131,
      "▁December": 3132,
      "▁Project": 3133,
      "▁standard": 3134,
      "▁political": 3135,
      "ray": 3136,
      "▁become": 3137,
      "iod": 3138,
      "▁EE": 3139,
      "ity,": 3140,
      "▁India": 3141,
      "▁maint": 3142,
      "▁Ear": 3143,
      "▁partnership": 3144,
      "▁prim": 3145,
      "▁agre": 3146,
      "▁Inter": 3147,
      "▁general": 3148,
      "▁architect": 3149,
      "▁Lou": 3150,
      "▁Hol": 3151,
      ".\nJ": 3152,
      "aving": 3153,
      "▁transport": 3154,
      "▁musical": 3155,
      "▁numerous": 3156,
      "▁Flor": 3157,
      "ffic": 3158,
      "4.": 3159,
      "▁Roy": 3160,
      "▁bank": 3161,
      "▁Michael": 3162,
      "▁designed": 3163,
      "A)": 3164,
      "▁nation": 3165,
      "▁making": 3166,
      "-P": 3167,
      "ama": 3168,
      "▁sustain": 3169,
      "▁treat": 3170,
      "itte": 3171,
      "▁occ": 3172,
      "ana": 3173,
      "▁same": 3174,
      "go": 3175,
      "▁mission": 3176,
      "▁total": 3177,
      "▁construction": 3178,
      "▁environmental": 3179,
      "ensive": 3180,
      "▁strong": 3181,
      "▁Nor": 3182,
      "cy": 3183,
      "▁tru": 3184,
      "▁electric": 3185,
      "▁old": 3186,
      "iber": 3187,
      "A,": 3188,
      "▁ident": 3189,
      "aper": 3190,
      "creen": 3191,
      "▁effic": 3192,
      "▁Are": 3193,
      "▁sector": 3194,
      "▁infrastructure": 3195,
      "▁African": 3196,
      "▁awarded": 3197,
      "imately": 3198,
      "actor": 3199,
      "utions": 3200,
      "▁Paul": 3201,
      "▁River": 3202,
      "▁increase": 3203,
      "▁season": 3204,
      "ological": 3205,
      "▁cred": 3206,
      "\nK": 3207,
      "▁consid": 3208,
      "HE": 3209,
      "▁previous": 3210,
      "▁collection": 3211,
      "▁After": 3212,
      "▁redu": 3213,
      "▁fun": 3214,
      "issions": 3215,
      "▁founded": 3216,
      "rove": 3217,
      "-h": 3218,
      ".\nI": 3219,
      "▁Technology": 3220,
      "til": 3221,
      "eign": 3222,
      "▁Stat": 3223,
      "ef": 3224,
      "▁park": 3225,
      "▁return": 3226,
      "▁risk": 3227,
      "▁gas": 3228,
      "▁read": 3229,
      "ending": 3230,
      "▁Corpor": 3231,
      "▁features": 3232,
      "▁History": 3233,
      "ache": 3234,
      "icro": 3235,
      "mit": 3236,
      "▁Texas": 3237,
      "▁board": 3238,
      "elligence": 3239,
      "▁providing": 3240,
      "err": 3241,
      "ape": 3242,
      "▁Robert": 3243,
      "▁engineering": 3244,
      "oth": 3245,
      "▁comput": 3246,
      "▁Training": 3247,
      "ales": 3248,
      "ison": 3249,
      "▁address": 3250,
      "▁Francis": 3251,
      "ED": 3252,
      "clus": 3253,
      "▁very": 3254,
      "▁Sing": 3255,
      "ospital": 3256,
      "▁First": 3257,
      "inning": 3258,
      "▁University,": 3259,
      "▁joined": 3260,
      "lish": 3261,
      "▁Mr.": 3262,
      "▁investig": 3263,
      "▁hous": 3264,
      "▁multip": 3265,
      "▁what": 3266,
      "▁sl": 3267,
      "coming": 3268,
      "ricult": 3269,
      "▁even": 3270,
      "empor": 3271,
      "icles": 3272,
      "icag": 3273,
      "▁potential": 3274,
      "▁view": 3275,
      "▁phys": 3276,
      "▁Year": 3277,
      "▁degree": 3278,
      "▁District": 3279,
      "ising": 3280,
      "▁French": 3281,
      "▁offers": 3282,
      "aur": 3283,
      "ance,": 3284,
      "▁sett": 3285,
      "▁release": 3286,
      "▁1,": 3287,
      "▁lim": 3288,
      "▁Global": 3289,
      "▁your": 3290,
      "oice": 3291,
      "▁Sol": 3292,
      "▁Pal": 3293,
      "uk": 3294,
      "▁programm": 3295,
      "▁lat": 3296,
      "or,": 3297,
      "▁Dan": 3298,
      "▁influ": 3299,
      "ations.": 3300,
      "▁Ne": 3301,
      "▁France": 3302,
      "pris": 3303,
      "amber": 3304,
      "▁find": 3305,
      "ting": 3306,
      "edy": 3307,
      "▁Cour": 3308,
      "▁St.": 3309,
      "▁25": 3310,
      "onn": 3311,
      "▁Mart": 3312,
      "▁activities": 3313,
      "inc": 3314,
      "▁nomin": 3315,
      "▁opt": 3316,
      "▁Bra": 3317,
      "▁together": 3318,
      "lant": 3319,
      "▁Red": 3320,
      "and,": 3321,
      "ependent": 3322,
      "rep": 3323,
      "ody": 3324,
      "We": 3325,
      "▁model": 3326,
      "etter": 3327,
      "ed.": 3328,
      "▁modern": 3329,
      "omb": 3330,
      "▁AC": 3331,
      "▁bring": 3332,
      "land,": 3333,
      "▁Lat": 3334,
      "▁look": 3335,
      "▁year,": 3336,
      "▁Rich": 3337,
      "onst": 3338,
      "▁quality": 3339,
      "iting": 3340,
      "ingu": 3341,
      "▁news": 3342,
      "▁Del": 3343,
      "ally": 3344,
      "▁Carol": 3345,
      "inese": 3346,
      "▁14": 3347,
      "rab": 3348,
      "inary": 3349,
      "hood": 3350,
      "▁medical": 3351,
      "▁period": 3352,
      "▁mobile": 3353,
      "▁Miss": 3354,
      "▁way": 3355,
      "ler": 3356,
      "▁operations": 3357,
      ".C": 3358,
      "▁Bay": 3359,
      "agaz": 3360,
      "▁insp": 3361,
      "aign": 3362,
      "▁relations": 3363,
      "▁George": 3364,
      "ethod": 3365,
      "emic": 3366,
      "▁administ": 3367,
      "irth": 3368,
      "gor": 3369,
      "▁job": 3370,
      "gress": 3371,
      "▁vol": 3372,
      "▁beh": 3373,
      "▁solar": 3374,
      "▁Broad": 3375,
      "▁final": 3376,
      "▁change": 3377,
      "zer": 3378,
      "▁ele": 3379,
      "▁County": 3380,
      "o-": 3381,
      "quare": 3382,
      "▁cy": 3383,
      "▁dedic": 3384,
      "▁efforts": 3385,
      "reak": 3386,
      "istic": 3387,
      "▁due": 3388,
      "acter": 3389,
      "▁anim": 3390,
      "▁rights": 3391,
      "\\\\\\\\": 3392,
      "▁allow": 3393,
      "▁Jo": 3394,
      "▁plant": 3395,
      "▁built": 3396,
      "▁(R": 3397,
      "roll": 3398,
      "\nV": 3399,
      "we": 3400,
      "▁funding": 3401,
      "▁opportunities": 3402,
      "▁Invest": 3403,
      "ode": 3404,
      "__": 3405,
      "▁Fin": 3406,
      "▁name": 3407,
      "ography": 3408,
      "▁Republic": 3409,
      "alf": 3410,
      "▁Pat": 3411,
      "▁know": 3412,
      "apt": 3413,
      "▁graduate": 3414,
      "▁Committe": 3415,
      "ductor": 3416,
      "▁Canada": 3417,
      "▁bas": 3418,
      "▁high-": 3419,
      "▁Work": 3420,
      "▁played": 3421,
      "▁gener": 3422,
      "▁poss": 3423,
      "▁feature": 3424,
      "▁Office": 3425,
      "▁expand": 3426,
      "▁el": 3427,
      "ps": 3428,
      "▁Acc": 3429,
      "ills": 3430,
      "rown": 3431,
      "▁free": 3432,
      "▁EECS": 3433,
      "ishing": 3434,
      "ots": 3435,
      "ees": 3436,
      "▁developing": 3437,
      "▁actor": 3438,
      "▁challeng": 3439,
      "▁sold": 3440,
      "▁Chicag": 3441,
      "▁By": 3442,
      "OU": 3443,
      "A.": 3444,
      "▁One": 3445,
      "▁Board": 3446,
      "▁dest": 3447,
      "▁brand": 3448,
      "ancing": 3449,
      "▁pay": 3450,
      "aining": 3451,
      "▁light": 3452,
      "right": 3453,
      "▁[": 3454,
      "pect": 3455,
      "▁Sant": 3456,
      "▁Virgin": 3457,
      "▁Mo": 3458,
      "▁protect": 3459,
      "▁continue": 3460,
      "atives": 3461,
      "▁aircraft": 3462,
      "ually": 3463,
      "▁Business": 3464,
      "▁tax": 3465,
      "astern": 3466,
      "▁big": 3467,
      "▁critical": 3468,
      "▁much": 3469,
      "▁resid": 3470,
      "▁targ": 3471,
      "▁civil": 3472,
      "iddle": 3473,
      "▁Symphony": 3474,
      "▁di": 3475,
      "▁artists": 3476,
      "▁facilities": 3477,
      "▁Central": 3478,
      "izing": 3479,
      "us,": 3480,
      "ope": 3481,
      "ara": 3482,
      "▁implement": 3483,
      "▁Angeles": 3484,
      "▁UN": 3485,
      "▁James": 3486,
      "to": 3487,
      "ead": 3488,
      "▁autom": 3489,
      "▁age": 3490,
      "▁multiple": 3491,
      "▁executive": 3492,
      "▁Jack": 3493,
      "▁leadership": 3494,
      "▁further": 3495,
      "18": 3496,
      "ocal": 3497,
      "▁until": 3498,
      "▁late": 3499,
      "▁oil": 3500,
      "▁London": 3501,
      "▁13": 3502,
      "▁Bel": 3503,
      "▁Met": 3504,
      "▁hom": 3505,
      "bo": 3506,
      "▁Of": 3507,
      "▁Security": 3508,
      "▁Network": 3509,
      "▁academ": 3510,
      "iance": 3511,
      "ky": 3512,
      "▁Lu": 3513,
      "cipl": 3514,
      "▁Rad": 3515,
      "▁learning": 3516,
      "ats": 3517,
      "▁ground": 3518,
      "▁fell": 3519,
      "▁English": 3520,
      "oul": 3521,
      "age,": 3522,
      "claim": 3523,
      "▁exhib": 3524,
      "▁Green": 3525,
      "▁software": 3526,
      "▁Go": 3527,
      "▁organizations": 3528,
      "bout": 3529,
      "▁super": 3530,
      "▁achiev": 3531,
      "▁complex": 3532,
      "▁events": 3533,
      "▁related": 3534,
      "▁divers": 3535,
      "▁Fort": 3536,
      "▁foreign": 3537,
      "igious": 3538,
      "▁Chinese": 3539,
      "▁directed": 3540,
      "’t": 3541,
      "izes": 3542,
      "▁cert": 3543,
      "emporary": 3544,
      "wit": 3545,
      "ervation": 3546,
      "ute": 3547,
      "▁Econom": 3548,
      "uclear": 3549,
      "▁Enter": 3550,
      "▁single": 3551,
      "▁Out": 3552,
      "ges": 3553,
      "olars": 3554,
      "son,": 3555,
      "ices,": 3556,
      "ese": 3557,
      "▁track": 3558,
      "▁additional": 3559,
      "▁promot": 3560,
      "par": 3561,
      "▁capac": 3562,
      "ximately": 3563,
      "rical": 3564,
      "▁Thom": 3565,
      "arter": 3566,
      "elling": 3567,
      "▁Rock": 3568,
      "▁CS": 3569,
      "▁foot": 3570,
      "▁vir": 3571,
      "▁From": 3572,
      "5.": 3573,
      "ge,": 3574,
      "▁www": 3575,
      "▁clos": 3576,
      "▁Chair": 3577,
      "EL": 3578,
      "gest": 3579,
      "RO": 3580,
      "▁good": 3581,
      "▁highly": 3582,
      "▁Awards": 3583,
      "▁mach": 3584,
      "▁story": 3585,
      "now": 3586,
      "▁center": 3587,
      "▁population": 3588,
      "ech": 3589,
      "▁Att": 3590,
      "▁Florid": 3591,
      "▁Education": 3592,
      "▁took": 3593,
      "ET": 3594,
      "▁third": 3595,
      "▁Inf": 3596,
      "ried": 3597,
      "▁Fund": 3598,
      "▁UK": 3599,
      "▁here": 3600,
      "▁states": 3601,
      "▁drug": 3602,
      "▁gradu": 3603,
      "▁(F": 3604,
      "▁regul": 3605,
      "ple": 3606,
      "oud": 3607,
      "▁(I": 3608,
      "▁corpor": 3609,
      "▁Mary": 3610,
      "▁Inc.": 3611,
      "21": 3612,
      "▁expert": 3613,
      "▁AI": 3614,
      "▁Mal": 3615,
      "▁www.": 3616,
      "▁travel": 3617,
      "▁worldwide": 3618,
      "▁few": 3619,
      "▁solo": 3620,
      "rain": 3621,
      "-re": 3622,
      "▁Service": 3623,
      "▁provided": 3624,
      "isl": 3625,
      "▁variety": 3626,
      "▁featured": 3627,
      "ought": 3628,
      "west": 3629,
      "▁nearly": 3630,
      "▁appeared": 3631,
      "▁Space": 3632,
      "▁Pacific": 3633,
      "▁policy": 3634,
      "▁lab": 3635,
      "▁Just": 3636,
      "▁coast": 3637,
      "ipment": 3638,
      "▁40": 3639,
      "writ": 3640,
      "▁cultural": 3641,
      "▁account": 3642,
      "place": 3643,
      "▁Dem": 3644,
      "▁Georg": 3645,
      "▁analys": 3646,
      "▁unique": 3647,
      "▁es": 3648,
      "▁festival": 3649,
      "ist,": 3650,
      "-time": 3651,
      "▁trade": 3652,
      "ar,": 3653,
      "▁rock": 3654,
      "-T": 3655,
      "rael": 3656,
      "▁ten": 3657,
      "▁launched": 3658,
      "▁press": 3659,
      "eal": 3660,
      "▁Commission": 3661,
      "▁enc": 3662,
      "ibrary": 3663,
      "▁born": 3664,
      "ternet": 3665,
      "▁rank": 3666,
      "med": 3667,
      "icular": 3668,
      "▁often": 3669,
      "▁hand": 3670,
      "ches": 3671,
      "▁2010": 3672,
      "illed": 3673,
      "▁solutions": 3674,
      "▁Royal": 3675,
      "▁radio": 3676,
      "▁issues": 3677,
      "-B": 3678,
      "▁2014": 3679,
      "aid": 3680,
      "▁awards": 3681,
      "▁improve": 3682,
      "▁exist": 3683,
      ".com/": 3684,
      "oto": 3685,
      "▁inform": 3686,
      "war": 3687,
      "aging": 3688,
      "yle": 3689,
      "▁completed": 3690,
      "aud": 3691,
      "iff": 3692,
      "▁journal": 3693,
      "▁Gl": 3694,
      "▁connect": 3695,
      "▁instru": 3696,
      "▁Bill": 3697,
      "▁introdu": 3698,
      "TA": 3699,
      "▁Indust": 3700,
      "▁alumn": 3701,
      "▁demonst": 3702,
      "ades": 3703,
      "EM": 3704,
      "ancer": 3705,
      "iano": 3706,
      "▁Don": 3707,
      "gen": 3708,
      "▁ship": 3709,
      "▁Camp": 3710,
      "▁Do": 3711,
      "eff": 3712,
      "▁Special": 3713,
      "▁still": 3714,
      "aker": 3715,
      "▁Record": 3716,
      "ios": 3717,
      "CO": 3718,
      "▁aim": 3719,
      "▁online": 3720,
      "van": 3721,
      "ittle": 3722,
      "▁action": 3723,
      "▁entert": 3724,
      "▁Jos": 3725,
      "▁discuss": 3726,
      "▁ep": 3727,
      "▁world’s": 3728,
      "▁increasing": 3729,
      "▁21": 3730,
      "▁Bal": 3731,
      "▁industrial": 3732,
      "▁vers": 3733,
      "▁sen": 3734,
      "ij": 3735,
      "▁town": 3736,
      "▁dedicated": 3737,
      "▁Congress": 3738,
      "ston": 3739,
      "oney": 3740,
      "here": 3741,
      "▁sound": 3742,
      "t,": 3743,
      "▁according": 3744,
      "▁regional": 3745,
      "▁Canadian": 3746,
      "ina,": 3747,
      "▁Offic": 3748,
      "▁innovative": 3749,
      "ate,": 3750,
      "rick": 3751,
      "▁office": 3752,
      "inguished": 3753,
      "▁Columb": 3754,
      "\n“": 3755,
      "▁prin": 3756,
      "▁Opera": 3757,
      "▁expected": 3758,
      "▁staff": 3759,
      "▁langu": 3760,
      "▁whose": 3761,
      "▁facility": 3762,
      "▁Mod": 3763,
      "▁ple": 3764,
      "field": 3765,
      "AP": 3766,
      "▁(U": 3767,
      "▁Rob": 3768,
      "▁emerg": 3769,
      "ione": 3770,
      "▁line": 3771,
      "▁wide": 3772,
      "▁Tur": 3773,
      "burg": 3774,
      "ides": 3775,
      "light": 3776,
      "▁approximately": 3777,
      "▁(T": 3778,
      "ops": 3779,
      "▁method": 3780,
      "▁presented": 3781,
      "▁(201": 3782,
      "ibility": 3783,
      "-winning": 3784,
      "owship": 3785,
      "▁Mad": 3786,
      "▁scientific": 3787,
      "▁Louis": 3788,
      "book": 3789,
      "▁launch": 3790,
      "▁faculty": 3791,
      "▁begin": 3792,
      "▁serves": 3793,
      "▁enh": 3794,
      "ienc": 3795,
      "▁meas": 3796,
      "▁deliver": 3797,
      "▁cities": 3798,
      "raw": 3799,
      "▁ur": 3800,
      "ermany": 3801,
      "▁growing": 3802,
      "▁Atlant": 3803,
      "forcement": 3804,
      "▁partner": 3805,
      "▁attack": 3806,
      "▁There": 3807,
      "▁Die": 3808,
      "reng": 3809,
      "▁Chief": 3810,
      "▁coun": 3811,
      "▁Division": 3812,
      "▁UC": 3813,
      "▁Star": 3814,
      "ena": 3815,
      "▁require": 3816,
      "ention": 3817,
      "://": 3818,
      "iation": 3819,
      "harm": 3820,
      "▁Human": 3821,
      "▁films": 3822,
      "▁order": 3823,
      "dom": 3824,
      "▁my": 3825,
      "▁Net": 3826,
      "▁arr": 3827,
      "▁More": 3828,
      "▁tool": 3829,
      "▁advis": 3830,
      "▁share": 3831,
      "▁Computer": 3832,
      "▁advanced": 3833,
      "▁sens": 3834,
      "http": 3835,
      "8.": 3836,
      "hat": 3837,
      "▁increased": 3838,
      "▁Management": 3839,
      "comp": 3840,
      "▁contributions": 3841,
      "owned": 3842,
      "▁recognized": 3843,
      "aries": 3844,
      "▁particular": 3845,
      "▁Mont": 3846,
      "ander": 3847,
      "▁(L": 3848,
      "merican": 3849,
      "▁tw": 3850,
      "ication": 3851,
      "ma": 3852,
      "ification": 3853,
      "hold": 3854,
      "▁professor": 3855,
      "▁wind": 3856,
      "alent": 3857,
      "▁Great": 3858,
      "▁ut": 3859,
      "▁condition": 3860,
      "lam": 3861,
      "▁lif": 3862,
      "▁Africa": 3863,
      "oura": 3864,
      "▁NY": 3865,
      "▁Lead": 3866,
      "▁install": 3867,
      "ta": 3868,
      "▁sat": 3869,
      "amous": 3870,
      "▁continued": 3871,
      "▁Secret": 3872,
      "ports": 3873,
      ".\nU": 3874,
      "▁site": 3875,
      "▁Histor": 3876,
      "▁Leg": 3877,
      "▁proble": 3878,
      "man,": 3879,
      "nder": 3880,
      "▁contract": 3881,
      "▁0": 3882,
      "▁USA": 3883,
      "▁Union": 3884,
      "22": 3885,
      "▁renew": 3886,
      "\nCh": 3887,
      "airs": 3888,
      "6.": 3889,
      "▁Market": 3890,
      "▁dom": 3891,
      "▁(G": 3892,
      "ague": 3893,
      "action": 3894,
      "▁Pre": 3895,
      "▁leader": 3896,
      "▁common": 3897,
      "▁https://": 3898,
      "▁green": 3899,
      "rofit": 3900,
      "▁Tom": 3901,
      "attle": 3902,
      "▁Mount": 3903,
      "▁desc": 3904,
      "▁island": 3905,
      "▁miss": 3906,
      "▁Mer": 3907,
      "aces": 3908,
      "▁chem": 3909,
      "▁effort": 3910,
      "▁Rel": 3911,
      "z,": 3912,
      "▁threat": 3913,
      "hel": 3914,
      "▁Government": 3915,
      "▁Av": 3916,
      "▁forward": 3917,
      "ville": 3918,
      "▁selected": 3919,
      "IL": 3920,
      "venue": 3921,
      "▁Class": 3922,
      "▁equipment": 3923,
      "▁br": 3924,
      "annel": 3925,
      "▁see": 3926,
      "▁Sim": 3927,
      "uit": 3928,
      "▁customers": 3929,
      "olit": 3930,
      "▁right": 3931,
      "▁active": 3932,
      "▁Post": 3933,
      "▁grant": 3934,
      "▁less": 3935,
      "▁earned": 3936,
      "▁Sci": 3937,
      "▁“T": 3938,
      "et,": 3939,
      "itions": 3940,
      "▁technologies": 3941,
      "▁My": 3942,
      "▁propos": 3943,
      "▁nov": 3944,
      "▁purch": 3945,
      "▁toward": 3946,
      "▁content": 3947,
      "▁Que": 3948,
      "▁Series": 3949,
      "▁24": 3950,
      "riend": 3951,
      "ica": 3952,
      "▁campaign": 3953,
      ");": 3954,
      "▁dram": 3955,
      "ras": 3956,
      "▁rev": 3957,
      "▁another": 3958,
      "▁joint": 3959,
      "t.": 3960,
      "▁“A": 3961,
      "ighest": 3962,
      "▁agenc": 3963,
      "atal": 3964,
      "▁receive": 3965,
      "▁Sam": 3966,
      "7.": 3967,
      "sy": 3968,
      "oper": 3969,
      "▁death": 3970,
      "▁master": 3971,
      "IA": 3972,
      "▁Committee": 3973,
      "IR": 3974,
      "▁manufacturing": 3975,
      "▁learn": 3976,
      "▁point": 3977,
      "▁written": 3978,
      "▁bar": 3979,
      "▁typ": 3980,
      "▁capt": 3981,
      "off": 3982,
      "▁university": 3983,
      "▁Up": 3984,
      "▁tr": 3985,
      "▁started": 3986,
      "ridge": 3987,
      "▁resources": 3988,
      "▁screen": 3989,
      "▁Asia": 3990,
      "▁Play": 3991,
      "▁lo": 3992,
      "▁Grand": 3993,
      "ways": 3994,
      "chan": 3995,
      "PS": 3996,
      "▁bro": 3997,
      "▁focused": 3998,
      "▁independent": 3999,
      "AD": 4000,
      "vention": 4001,
      "era": 4002,
      "▁did": 4003,
      "les,": 4004,
      "▁“S": 4005,
      "▁better": 4006,
      "▁During": 4007,
      "▁personal": 4008,
      "▁Design": 4009,
      "▁Defense": 4010,
      ".org": 4011,
      "EEE": 4012,
      "▁sch": 4013,
      "▁A.": 4014,
      "23": 4015,
      "BS": 4016,
      "▁hit": 4017,
      "▁But": 4018,
      "play": 4019,
      "▁White": 4020,
      "s)": 4021,
      "vert": 4022,
      "▁target": 4023,
      "▁Women": 4024,
      "ING": 4025,
      "▁deploy": 4026,
      "▁Tor": 4027,
      "▁because": 4028,
      "▁po": 4029,
      "▁should": 4030,
      "▁univers": 4031,
      "▁Israel": 4032,
      "▁factor": 4033,
      "▁hard": 4034,
      "▁Tru": 4035,
      "▁Medic": 4036,
      "house": 4037,
      "▁shows": 4038,
      "▁Executive": 4039,
      "▁THE": 4040,
      "▁Bost": 4041,
      "tar": 4042,
      "▁deep": 4043,
      "aged": 4044,
      "itiz": 4045,
      "▁mark": 4046,
      "ests": 4047,
      "▁cur": 4048,
      "▁seven": 4049,
      "rump": 4050,
      "▁capacity": 4051,
      "▁demand": 4052,
      "ux": 4053,
      "▁west": 4054,
      "▁reduce": 4055,
      "iers": 4056,
      "aches": 4057,
      "▁streng": 4058,
      "▁circ": 4059,
      "mark": 4060,
      "▁Organ": 4061,
      "0s": 4062,
      "▁Ben": 4063,
      "C)": 4064,
      "▁studies": 4065,
      "▁et": 4066,
      "idence": 4067,
      "▁Administ": 4068,
      "abilities": 4069,
      "▁Frank": 4070,
      "9.": 4071,
      "oon": 4072,
      "▁review": 4073,
      "rian": 4074,
      "rd": 4075,
      "▁overs": 4076,
      "get": 4077,
      "onse": 4078,
      "▁Aff": 4079,
      "IG": 4080,
      "▁generation": 4081,
      "▁Labor": 4082,
      "▁webs": 4083,
      "▁serve": 4084,
      "▁co-": 4085,
      "▁fuel": 4086,
      "▁highest": 4087,
      "▁higher": 4088,
      "joy": 4089,
      "▁Show": 4090,
      "▁2000": 4091,
      "▁Partn": 4092,
      "▁underg": 4093,
      "▁broadcast": 4094,
      "ivity": 4095,
      "▁senior": 4096,
      "ceed": 4097,
      "▁Richard": 4098,
      "▁technical": 4099,
      "change": 4100,
      "▁Power": 4101,
      "▁world.": 4102,
      "estic": 4103,
      "mp": 4104,
      "▁reduc": 4105,
      "▁#": 4106,
      "▁conc": 4107,
      "▁193": 4108,
      "▁2013": 4109,
      "▁tri": 4110,
      "▁link": 4111,
      "▁operating": 4112,
      "11": 4113,
      "▁acclaim": 4114,
      "▁Philharm": 4115,
      "▁left": 4116,
      "▁pan": 4117,
      "ste": 4118,
      "▁Federal": 4119,
      "25": 4120,
      "▁Over": 4121,
      "ari": 4122,
      "▁Perform": 4123,
      "irl": 4124,
      "ledge": 4125,
      "▁Concert": 4126,
      "OS": 4127,
      "▁Environment": 4128,
      "▁academic": 4129,
      "ess,": 4130,
      "head": 4131,
      "eph": 4132,
      "▁reported": 4133,
      "io,": 4134,
      "erd": 4135,
      "▁farm": 4136,
      "▁continues": 4137,
      "▁agreement": 4138,
      "▁labor": 4139,
      "erve": 4140,
      "▁leaders": 4141,
      "▁Super": 4142,
      "▁without": 4143,
      "▁caus": 4144,
      "▁must": 4145,
      "▁game": 4146,
      "rey": 4147,
      "me": 4148,
      "olf": 4149,
      "▁signed": 4150,
      "rote": 4151,
      "ore,": 4152,
      "▁recip": 4153,
      "▁others": 4154,
      "iction": 4155,
      "asc": 4156,
      "▁ide": 4157,
      "▁via": 4158,
      "▁(H": 4159,
      "anish": 4160,
      "day,": 4161,
      "nam": 4162,
      "▁ill": 4163,
      "ieve": 4164,
      "▁Germany": 4165,
      "▁supply": 4166,
      "▁Smith": 4167,
      "ours": 4168,
      "▁campus": 4169,
      "-D": 4170,
      "▁stage": 4171,
      "▁Francisco": 4172,
      "agazine": 4173,
      "▁Since": 4174,
      "60": 4175,
      "▁Gar": 4176,
      "isc": 4177,
      "▁miles": 4178,
      "▁regular": 4179,
      "▁latest": 4180,
      "rene": 4181,
      "istant": 4182,
      "level": 4183,
      "▁turn": 4184,
      "▁chair": 4185,
      "▁Young": 4186,
      "overy": 4187,
      "▁Engine": 4188,
      ".\nAs": 4189,
      "▁addition,": 4190,
      "▁entertainment": 4191,
      "▁Hill": 4192,
      "inem": 4193,
      "ynam": 4194,
      "▁plans": 4195,
      "▁Mexico": 4196,
      "▁Fellow": 4197,
      "ira": 4198,
      "▁rob": 4199,
      "▁tele": 4200,
      "edia": 4201,
      "▁J.": 4202,
      "▁2012": 4203,
      "▁years.": 4204,
      "▁Other": 4205,
      "▁applications": 4206,
      "etition": 4207,
      "eck": 4208,
      "cean": 4209,
      "que": 4210,
      "▁Media": 4211,
      "▁Viet": 4212,
      "▁Court": 4213,
      "▁Wild": 4214,
      "▁Times": 4215,
      "town": 4216,
      "▁premier": 4217,
      "▁base": 4218,
      "▁north": 4219,
      "▁Journal": 4220,
      "▁However,": 4221,
      "▁goal": 4222,
      "▁Tod": 4223,
      "▁urban": 4224,
      "▁agricult": 4225,
      "▁emb": 4226,
      "▁spec": 4227,
      "uert": 4228,
      "ado": 4229,
      "▁south": 4230,
      "ilar": 4231,
      "iences": 4232,
      "▁Mac": 4233,
      "▁recorded": 4234,
      "ona": 4235,
      "▁Corporation": 4236,
      ".\nK": 4237,
      "▁2011": 4238,
      "ift": 4239,
      "▁offer": 4240,
      "etic": 4241,
      "ocr": 4242,
      "▁clean": 4243,
      "▁Southern": 4244,
      "▁sustainable": 4245,
      "ilding": 4246,
      "icy": 4247,
      "verage": 4248,
      "▁long-": 4249,
      "▁Coast": 4250,
      "sel": 4251,
      "▁house": 4252,
      "olk": 4253,
      "▁ST": 4254,
      "▁prior": 4255,
      "▁relationship": 4256,
      "▁enjoy": 4257,
      "rants": 4258,
      "\nAn": 4259,
      "▁ke": 4260,
      "C,": 4261,
      "▁Chicago": 4262,
      "▁heart": 4263,
      "▁character": 4264,
      "▁responsible": 4265,
      "▁Pet": 4266,
      "▁wid": 4267,
      "▁IN": 4268,
      "fits": 4269,
      "ian,": 4270,
      "reater": 4271,
      "most": 4272,
      "40": 4273,
      "▁City,": 4274,
      "▁performances": 4275,
      "▁ge": 4276,
      "mission": 4277,
      "▁collaboration": 4278,
      "▁Western": 4279,
      "▁treatment": 4280,
      "▁Guard": 4281,
      "▁explor": 4282,
      "u,": 4283,
      "▁recording": 4284,
      "▁forces": 4285,
      "▁Lab": 4286,
      "▁Its": 4287,
      "▁Arab": 4288,
      "-of": 4289,
      "▁groups": 4290,
      "ids": 4291,
      "▁Community": 4292,
      "▁traditional": 4293,
      "▁multi-": 4294,
      "though": 4295,
      "▁Mass": 4296,
      "▁Om": 4297,
      "face": 4298,
      "omet": 4299,
      "▁seek": 4300,
      "lywood": 4301,
      "▁helped": 4302,
      "iment": 4303,
      "ype": 4304,
      "▁Pan": 4305,
      "hens": 4306,
      "▁don": 4307,
      "ender": 4308,
      "sid": 4309,
      "▁popul": 4310,
      "rish": 4311,
      "▁ec": 4312,
      "▁approv": 4313,
      "▁if": 4314,
      "▁teaching": 4315,
      "▁hot": 4316,
      "PA": 4317,
      "aring": 4318,
      "▁Mark": 4319,
      "\nSt": 4320,
      "▁strategic": 4321,
      "▁(E": 4322,
      "▁rail": 4323,
      "▁mot": 4324,
      "▁Min": 4325,
      "▁headqu": 4326,
      "▁reach": 4327,
      "▁enter": 4328,
      "▁diverse": 4329,
      "▁Navy": 4330,
      "akers": 4331,
      "ano": 4332,
      "ellence": 4333,
      "▁Cult": 4334,
      "▁Ev": 4335,
      "▁“I": 4336,
      "▁Washington,": 4337,
      "board": 4338,
      "▁mass": 4339,
      "▁Command": 4340,
      "▁Centre": 4341,
      "▁estim": 4342,
      "▁Top": 4343,
      "▁neigh": 4344,
      "▁IEEE": 4345,
      "▁summer": 4346,
      "▁carbon": 4347,
      "▁Alex": 4348,
      "avor": 4349,
      "▁Du": 4350,
      "ites": 4351,
      "▁detail": 4352,
      "▁Scott": 4353,
      "▁involved": 4354,
      "▁Book": 4355,
      "i.": 4356,
      "riminal": 4357,
      "▁safety": 4358,
      "ires": 4359,
      "▁commitment": 4360,
      "▁producer": 4361,
      "▁du": 4362,
      "▁previously": 4363,
      "uerto": 4364,
      "term": 4365,
      "▁jazz": 4366,
      "▁clin": 4367,
      "tra": 4368,
      "▁expans": 4369,
      "istan": 4370,
      "▁(200": 4371,
      "▁Gram": 4372,
      "▁Arm": 4373,
      "ae": 4374,
      "cle": 4375,
      "▁moved": 4376,
      "▁Adv": 4377,
      "▁nuclear": 4378,
      "▁machine": 4379,
      "”,": 4380,
      "reprene": 4381,
      "▁M.": 4382,
      "ase,": 4383,
      "▁deal": 4384,
      "▁Life": 4385,
      "▁Airport": 4386,
      "opp": 4387,
      "▁Club": 4388,
      "▁came": 4389,
      "▁Martin": 4390,
      "▁manufactur": 4391,
      "venth": 4392,
      "▁approach": 4393,
      "▁advoc": 4394,
      "▁disease": 4395,
      "▁Sil": 4396,
      "▁holds": 4397,
      "order": 4398,
      "leg": 4399,
      "▁Prov": 4400,
      "▁ste": 4401,
      "▁Penn": 4402,
      "▁fire": 4403,
      "s.”": 4404,
      "life": 4405,
      "▁Sk": 4406,
      "▁trad": 4407,
      "erry": 4408,
      "▁time,": 4409,
      "er’s": 4410,
      "▁went": 4411,
      "class": 4412,
      "ictor": 4413,
      "uty": 4414,
      "▁creating": 4415,
      "erem": 4416,
      "▁eight": 4417,
      "\nFrom": 4418,
      "▁Broadway": 4419,
      "▁partners": 4420,
      "raduate": 4421,
      "nown": 4422,
      "tic": 4423,
      "▁opportunity": 4424,
      "▁resident": 4425,
      "▁Den": 4426,
      "utual": 4427,
      "▁fight": 4428,
      "ION": 4429,
      "▁featuring": 4430,
      "▁People": 4431,
      "▁Medical": 4432,
      "▁historic": 4433,
      "▁subject": 4434,
      "▁unit": 4435,
      "ili": 4436,
      "▁Home": 4437,
      "uge": 4438,
      "lated": 4439,
      "▁Carolina": 4440,
      "iring": 4441,
      "▁legisl": 4442,
      "▁Civil": 4443,
      "▁Arch": 4444,
      "▁talent": 4445,
      "▁Disney": 4446,
      "aken": 4447,
      "▁central": 4448,
      "▁No": 4449,
      "▁cr": 4450,
      "-F": 4451,
      "bert": 4452,
      "rought": 4453,
      "▁virt": 4454,
      "fl": 4455,
      "▁Plan": 4456,
      "▁Famil": 4457,
      "▁Kingdom": 4458,
      "▁York,": 4459,
      "li": 4460,
      "itial": 4461,
      "▁Tr": 4462,
      "▁Minister": 4463,
      "ures,": 4464,
      "▁“B": 4465,
      "17": 4466,
      "room": 4467,
      "▁rap": 4468,
      "▁respect": 4469,
      "▁opened": 4470,
      "▁researchers": 4471,
      ".\nHe": 4472,
      "-n": 4473,
      "▁court": 4474,
      ".C.": 4475,
      "▁mix": 4476,
      "▁continu": 4477,
      "▁sym": 4478,
      "▁Charles": 4479,
      "▁culture": 4480,
      "▁Mov": 4481,
      "ador": 4482,
      "iversary": 4483,
      "▁wild": 4484,
      "▁Latin": 4485,
      "▁lives": 4486,
      "▁cut": 4487,
      "ordin": 4488,
      "▁primary": 4489,
      "▁Systems": 4490,
      "▁analysis": 4491,
      "▁existing": 4492,
      "▁Vis": 4493,
      "her": 4494,
      "▁supporting": 4495,
      "▁Long": 4496,
      "\nEE": 4497,
      "urt": 4498,
      "▁given": 4499,
      "▁ever": 4500,
      "▁Mot": 4501,
      "▁Stan": 4502,
      "\nThis": 4503,
      ".\nThis": 4504,
      "▁offering": 4505,
      "▁Spanish": 4506,
      "▁Santa": 4507,
      "ship": 4508,
      "VID": 4509,
      "oma": 4510,
      "▁AN": 4511,
      "orney": 4512,
      "▁Exp": 4513,
      "-L": 4514,
      "▁Prot": 4515,
      "▁Wil": 4516,
      "▁Vice": 4517,
      "ering,": 4518,
      "▁Ill": 4519,
      "ided": 4520,
      "ript": 4521,
      "▁pers": 4522,
      "ley,": 4523,
      "rag": 4524,
      "▁men": 4525,
      "ha": 4526,
      "error": 4527,
      "▁Center,": 4528,
      "-R": 4529,
      "▁Read": 4530,
      "ireless": 4531,
      "ready": 4532,
      "xt": 4533,
      "▁intelligence": 4534,
      "▁Mult": 4535,
      "▁Fore": 4536,
      "▁Radio": 4537,
      "▁Oh": 4538,
      "▁adop": 4539,
      "▁Brook": 4540,
      "▁Sund": 4541,
      "▁mid": 4542,
      "OL": 4543,
      "CA": 4544,
      "▁Sat": 4545,
      "aily": 4546,
      "▁Russian": 4547,
      "▁competition": 4548,
      "n,": 4549,
      "▁IS": 4550,
      "▁Ros": 4551,
      "▁Korea": 4552,
      "ain,": 4553,
      "▁ACM": 4554,
      "▁describ": 4555,
      "▁Sur": 4556,
      "ue,": 4557,
      "igation": 4558,
      "▁advance": 4559,
      "ulf": 4560,
      "TS": 4561,
      "eler": 4562,
      "ached": 4563,
      "ive,": 4564,
      "▁consumer": 4565,
      "witter": 4566,
      "▁Est": 4567,
      "▁businesses": 4568,
      "▁While": 4569,
      "▁CD": 4570,
      "▁ess": 4571,
      "▁purs": 4572,
      "▁get": 4573,
      "▁sales": 4574,
      "▁ther": 4575,
      ".\nAbout": 4576,
      "▁Kong": 4577,
      "▁Thomas": 4578,
      "▁hospital": 4579,
      "alu": 4580,
      "▁chief": 4581,
      "▁express": 4582,
      "▁Competition": 4583,
      "▁serving": 4584,
      "▁Univers": 4585,
      "▁Under": 4586,
      "ternal": 4587,
      "▁legal": 4588,
      "▁Lee": 4589,
      "▁frequ": 4590,
      "▁response": 4591,
      "▁materials": 4592,
      "▁encoura": 4593,
      "▁Secretary": 4594,
      "▁celebr": 4595,
      "▁Rev": 4596,
      "▁Aut": 4597,
      "▁conducted": 4598,
      "15": 4599,
      "▁gl": 4600,
      "operation": 4601,
      "▁Water": 4602,
      "▁obs": 4603,
      "▁century": 4604,
      "▁function": 4605,
      "ranch": 4606,
      "▁living": 4607,
      "itage": 4608,
      "▁Innov": 4609,
      "▁district": 4610,
      "▁Kenn": 4611,
      "▁transform": 4612,
      "▁pione": 4613,
      "▁Most": 4614,
      "▁stream": 4615,
      "▁End": 4616,
      "▁renewable": 4617,
      "▁playing": 4618,
      "▁entire": 4619,
      "▁vision": 4620,
      "▁movement": 4621,
      "▁Song": 4622,
      "▁Lake": 4623,
      "▁charg": 4624,
      "m.": 4625,
      "▁States,": 4626,
      "▁famous": 4627,
      "▁Orchestra,": 4628,
      "▁consult": 4629,
      "sequ": 4630,
      "▁value": 4631,
      "▁Florida": 4632,
      "▁novel": 4633,
      "IV": 4634,
      "▁Valley": 4635,
      "ully": 4636,
      "edi": 4637,
      "▁ter": 4638,
      "▁times": 4639,
      "▁Fre": 4640,
      "▁Compan": 4641,
      "▁benefit": 4642,
      "▁cast": 4643,
      "▁road": 4644,
      "ger": 4645,
      "ydro": 4646,
      "▁Australia": 4647,
      "▁guitar": 4648,
      "▁Ob": 4649,
      "tainment": 4650,
      "▁California,": 4651,
      "80": 4652,
      "▁Paris": 4653,
      "▁Dance": 4654,
      "cel": 4655,
      "▁liter": 4656,
      "▁struct": 4657,
      "▁Child": 4658,
      "▁Philharmonic": 4659,
      "▁Ke": 4660,
      "▁Jim": 4661,
      "IM": 4662,
      "▁Mill": 4663,
      "▁train": 4664,
      "edom": 4665,
      "eline": 4666,
      "▁Ph.D.": 4667,
      "▁development,": 4668,
      "▁lands": 4669,
      "amin": 4670,
      "▁Care": 4671,
      "▁claim": 4672,
      "gy": 4673,
      "ampions": 4674,
      "lier": 4675,
      "▁pack": 4676,
      "th,": 4677,
      "▁regard": 4678,
      "care": 4679,
      "ointed": 4680,
      "▁AM": 4681,
      "▁formed": 4682,
      "▁article": 4683,
      "▁corporate": 4684,
      "▁studio": 4685,
      "▁performing": 4686,
      "▁mat": 4687,
      "rees": 4688,
      "AF": 4689,
      "▁Library": 4690,
      "ota": 4691,
      "▁Chamber": 4692,
      "ume": 4693,
      "UR": 4694,
      "pecially": 4695,
      "zil": 4696,
      "▁af": 4697,
      "▁editor": 4698,
      "-H": 4699,
      "▁studied": 4700,
      "be": 4701,
      "▁Capital": 4702,
      "oo": 4703,
      "cipal": 4704,
      "▁department": 4705,
      "▁Team": 4706,
      "▁commission": 4707,
      "▁Conference": 4708,
      "s,”": 4709,
      "ion.": 4710,
      "bit": 4711,
      "▁decl": 4712,
      "▁Lim": 4713,
      "▁ability": 4714,
      "hab": 4715,
      "▁ensure": 4716,
      "▁Jon": 4717,
      "▁Not": 4718,
      "istics": 4719,
      "▁2009": 4720,
      "▁2,": 4721,
      "▁dance": 4722,
      "▁conference": 4723,
      "▁che": 4724,
      "▁pur": 4725,
      "▁Bur": 4726,
      "▁sent": 4727,
      "iere": 4728,
      "▁Middle": 4729,
      "▁Hot": 4730,
      "▁Virginia": 4731,
      ".\nV": 4732,
      "orpor": 4733,
      "▁Color": 4734,
      "▁year.": 4735,
      "▁solution": 4736,
      "ua": 4737,
      "▁60": 4738,
      "▁consist": 4739,
      "iger": 4740,
      "▁Report": 4741,
      "▁documentary": 4742,
      "olarship": 4743,
      "ables": 4744,
      "▁case": 4745,
      "-found": 4746,
      "▁wins": 4747,
      "▁Hong": 4748,
      "reme": 4749,
      "urance": 4750,
      "▁Brown": 4751,
      "▁roles": 4752,
      "▁promote": 4753,
      "▁college": 4754,
      "▁source": 4755,
      "▁dat": 4756,
      "▁seen": 4757,
      "▁AT": 4758,
      "▁Sun": 4759,
      "▁Boston": 4760,
      "500": 4761,
      "▁That": 4762,
      "▁Dr": 4763,
      "▁centur": 4764,
      "▁America,": 4765,
      "iled": 4766,
      "vey": 4767,
      "▁Sub": 4768,
      "▁retail": 4769,
      "bass": 4770,
      "comes": 4771,
      "▁Det": 4772,
      "▁considered": 4773,
      "▁Conn": 4774,
      "▁cross": 4775,
      "▁complete": 4776,
      "▁Trump": 4777,
      "adel": 4778,
      "▁self": 4779,
      "▁satell": 4780,
      "▁22": 4781,
      "▁examp": 4782,
      "▁compon": 4783,
      "▁ven": 4784,
      "35": 4785,
      "▁Area": 4786,
      "▁Ant": 4787,
      "▁(W": 4788,
      "▁Puerto": 4789,
      "▁added": 4790,
      "PR": 4791,
      "▁website": 4792,
      "▁Entertainment": 4793,
      "ic,": 4794,
      "▁night": 4795,
      "▁thous": 4796,
      "aught": 4797,
      "▁enforcement": 4798,
      "▁batter": 4799,
      "▁thr": 4800,
      "▁Worth": 4801,
      ".\nFor": 4802,
      "arily": 4803,
      "▁Press": 4804,
      "▁log": 4805,
      "▁establish": 4806,
      "▁mechan": 4807,
      "▁Comput": 4808,
      "ings,": 4809,
      "▁bill": 4810,
      "unicip": 4811,
      "▁fall": 4812,
      "▁half": 4813,
      "-2": 4814,
      "-up": 4815,
      "▁worth": 4816,
      "then": 4817,
      "▁Master": 4818,
      "▁produce": 4819,
      "▁(O": 4820,
      "mar": 4821,
      "▁systems,": 4822,
      "▁Haw": 4823,
      "▁cells": 4824,
      "▁creative": 4825,
      "▁eas": 4826,
      "bur": 4827,
      "▁2008": 4828,
      "▁arts": 4829,
      "▁Mus": 4830,
      "▁economy": 4831,
      "▁hon": 4832,
      "▁integrated": 4833,
      "▁sw": 4834,
      "▁Peter": 4835,
      "▁card": 4836,
      "▁fail": 4837,
      "▁educational": 4838,
      "▁Mil": 4839,
      "▁property": 4840,
      "▁Produ": 4841,
      "▁Matt": 4842,
      "▁Church": 4843,
      "▁challenges": 4844,
      "▁S.": 4845,
      "▁does": 4846,
      "▁Gall": 4847,
      "▁syn": 4848,
      "▁Head": 4849,
      "▁storage": 4850,
      "▁dam": 4851,
      "▁Hen": 4852,
      "ze": 4853,
      "▁electronic": 4854,
      "▁supported": 4855,
      "olitan": 4856,
      "12": 4857,
      "undred": 4858,
      "ourc": 4859,
      "▁Mel": 4860,
      "▁break": 4861,
      "▁Information": 4862,
      "▁Festival,": 4863,
      "ero": 4864,
      "▁sports": 4865,
      "▁close": 4866,
      "heast": 4867,
      "▁extensive": 4868,
      "▁progress": 4869,
      "ews": 4870,
      "yond": 4871,
      "▁McC": 4872,
      "▁makes": 4873,
      "▁attract": 4874,
      "▁neighbor": 4875,
      "▁Nations": 4876,
      "▁guest": 4877,
      "ada": 4878,
      "▁rapid": 4879,
      "▁wrote": 4880,
      "▁levels": 4881,
      "aps": 4882,
      "▁Imp": 4883,
      "://www.": 4884,
      "▁already": 4885,
      "▁cours": 4886,
      "▁Wall": 4887,
      "▁pap": 4888,
      "iency": 4889,
      "▁Jeff": 4890,
      "▁vehicle": 4891,
      "▁decision": 4892,
      "empt": 4893,
      "▁concern": 4894,
      "▁path": 4895,
      "▁States.": 4896,
      "osed": 4897,
      "put": 4898,
      "▁put": 4899,
      "▁League": 4900,
      "▁individuals": 4901,
      "▁schools": 4902,
      "▁B.": 4903,
      "▁interview": 4904,
      "▁especially": 4905,
      "▁Big": 4906,
      "olid": 4907,
      "▁Fac": 4908,
      "▁emissions": 4909,
      "▁institutions": 4910,
      "▁days": 4911,
      "▁cru": 4912,
      "16": 4913,
      "▁communications": 4914,
      "emorial": 4915,
      "▁exam": 4916,
      "▁object": 4917,
      "▁universities": 4918,
      "▁vent": 4919,
      "▁sug": 4920,
      "▁square": 4921,
      "▁Uk": 4922,
      "▁Road": 4923,
      "▁op": 4924,
      "arters": 4925,
      "▁contemporary": 4926,
      "▁Land": 4927,
      "▁results": 4928,
      "▁Jazz": 4929,
      "▁able": 4930,
      "▁Time": 4931,
      "▁Gal": 4932,
      "ille,": 4933,
      "lied": 4934,
      "▁Open": 4935,
      "▁limited": 4936,
      "▁spent": 4937,
      "▁Win": 4938,
      "▁Assistant": 4939,
      "▁Che": 4940,
      "▁$2": 4941,
      "▁citiz": 4942,
      "▁capabilities": 4943,
      "▁Sl": 4944,
      "ter,": 4945,
      "▁specific": 4946,
      "▁deliv": 4947,
      "▁neg": 4948,
      "igan": 4949,
      "▁Food": 4950,
      "▁NAS": 4951,
      "▁initial": 4952,
      "▁Foreign": 4953,
      "inent": 4954,
      "▁beaut": 4955,
      "▁practice": 4956,
      "ylvan": 4957,
      "▁Internet": 4958,
      "bers": 4959,
      "avy": 4960,
      "▁domestic": 4961,
      "▁research,": 4962,
      "▁paper": 4963,
      "▁AS": 4964,
      "▁died": 4965,
      "▁“C": 4966,
      "▁committed": 4967,
      "▁England": 4968,
      "▁Services": 4969,
      "udget": 4970,
      ".\nAn": 4971,
      "▁Ok": 4972,
      "struct": 4973,
      "▁Policy": 4974,
      "-the": 4975,
      "▁rang": 4976,
      "▁Hollywood": 4977,
      "▁acquis": 4978,
      "▁winner": 4979,
      "▁Kar": 4980,
      "▁outstanding": 4981,
      "▁fast": 4982,
      "▁lic": 4983,
      "▁(Ph": 4984,
      "ment,": 4985,
      "▁Fe": 4986,
      "aced": 4987,
      "▁Hous": 4988,
      "S)": 4989,
      "▁force": 4990,
      "▁innovation": 4991,
      "yt": 4992,
      "onom": 4993,
      "▁1.": 4994,
      "▁Charl": 4995,
      "▁voice": 4996,
      "▁Russia": 4997,
      "▁songs": 4998,
      "stant": 4999,
      "▁prest": 5000,
      "▁opp": 5001,
      "ions,": 5002,
      "▁black": 5003,
      "fol": 5004,
      "▁Hel": 5005,
      "▁ult": 5006,
      "rative": 5007,
      "▁Social": 5008,
      "▁movie": 5009,
      "▁Hu": 5010,
      "ki": 5011,
      "▁photograph": 5012,
      "▁company’s": 5013,
      "▁combat": 5014,
      "ehr": 5015,
      "▁museum": 5016,
      "▁collect": 5017,
      ".\n\"": 5018,
      "▁Their": 5019,
      "eatt": 5020,
      "lymp": 5021,
      "ya": 5022,
      "▁“M": 5023,
      "▁singer": 5024,
      "▁initiative": 5025,
      "▁Vietnam": 5026,
      "▁Ser": 5027,
      "reek": 5028,
      "ho": 5029,
      "▁Sciences": 5030,
      "▁L.": 5031,
      "E,": 5032,
      "▁language": 5033,
      "▁prevent": 5034,
      "ola": 5035,
      "▁Theater": 5036,
      "▁ic": 5037,
      "back": 5038,
      "olar": 5039,
      "▁Hou": 5040,
      "▁having": 5041,
      "▁Sy": 5042,
      "14": 5043,
      "▁Seventh": 5044,
      "ground": 5045,
      "\nEECS": 5046,
      "▁Columbia": 5047,
      "clusive": 5048,
      "ferred": 5049,
      "90": 5050,
      "▁Distinguished": 5051,
      "-G": 5052,
      "▁brought": 5053,
      "▁Ric": 5054,
      "▁poll": 5055,
      "▁southern": 5056,
      "▁Cy": 5057,
      "▁transportation": 5058,
      "▁associated": 5059,
      "▁vice": 5060,
      "epar": 5061,
      "ules": 5062,
      "ging": 5063,
      "merce": 5064,
      "▁Administration": 5065,
      "▁block": 5066,
      "AG": 5067,
      "▁world,": 5068,
      "udd": 5069,
      "▁Wood": 5070,
      "ciet": 5071,
      "▁Web": 5072,
      "nel": 5073,
      "ister": 5074,
      "▁Ol": 5075,
      "▁station": 5076,
      "▁defense": 5077,
      "▁Our": 5078,
      "▁co-found": 5079,
      "▁ser": 5080,
      "ably": 5081,
      "work": 5082,
      "rehens": 5083,
      "▁statement": 5084,
      "prise": 5085,
      "ura": 5086,
      "▁Economic": 5087,
      "ule": 5088,
      "▁Brazil": 5089,
      "hile": 5090,
      "emble": 5091,
      "▁come": 5092,
      "▁amount": 5093,
      "▁acclaimed": 5094,
      "sylvan": 5095,
      "▁Justice": 5096,
      "▁step": 5097,
      "unt": 5098,
      "▁information,": 5099,
      "▁LL": 5100,
      "rupt": 5101,
      "one,": 5102,
      "oir": 5103,
      "▁Jr.": 5104,
      "▁talk": 5105,
      "▁starring": 5106,
      "▁Good": 5107,
      "▁tem": 5108,
      "▁prestigious": 5109,
      "▁Night": 5110,
      "D,": 5111,
      "▁Fellowship": 5112,
      "gorith": 5113,
      "▁Hear": 5114,
      "I)": 5115,
      "▁Ballet": 5116,
      "▁cate": 5117,
      "70": 5118,
      "ton,": 5119,
      "▁knowledge": 5120,
      "▁Polit": 5121,
      "▁followed": 5122,
      "sych": 5123,
      "ude": 5124,
      "ices.": 5125,
      "\\\\\\\\\\\\\\\\": 5126,
      "osph": 5127,
      "▁z": 5128,
      "igned": 5129,
      "ence,": 5130,
      "▁alongside": 5131,
      "▁Week": 5132,
      "BA": 5133,
      "fen": 5134,
      "▁upon": 5135,
      "▁Lear": 5136,
      "▁lik": 5137,
      "▁No.": 5138,
      "▁mill": 5139,
      "olic": 5140,
      "▁Gard": 5141,
      "▁away": 5142,
      "▁Aud": 5143,
      "▁concept": 5144,
      "▁lower": 5145,
      "▁Field": 5146,
      "▁least": 5147,
      ",\"": 5148,
      "▁Olymp": 5149,
      "▁entreprene": 5150,
      "part": 5151,
      "▁When": 5152,
      "▁Studies": 5153,
      "▁Japanese": 5154,
      "han": 5155,
      "-N": 5156,
      "ties": 5157,
      "▁feet": 5158,
      "▁Some": 5159,
      "IF": 5160,
      "▁Rights": 5161,
      "▁web": 5162,
      "▁patients": 5163,
      "▁Singap": 5164,
      "▁title": 5165,
      "aters": 5166,
      "gl": 5167,
      "▁spons": 5168,
      "▁credit": 5169,
      "▁situ": 5170,
      "azon": 5171,
      "cont": 5172,
      "▁meeting": 5173,
      "achelor": 5174,
      "▁Saint": 5175,
      "\nAl": 5176,
      "ificial": 5177,
      "▁quick": 5178,
      "▁possible": 5179,
      "▁micro": 5180,
      "▁dou": 5181,
      "▁needs": 5182,
      "ks": 5183,
      "▁subsid": 5184,
      "olec": 5185,
      "▁2020,": 5186,
      "CC": 5187,
      "▁front": 5188,
      "▁OF": 5189,
      "▁owned": 5190,
      "▁required": 5191,
      "igen": 5192,
      "ell,": 5193,
      "▁restaur": 5194,
      "▁According": 5195,
      "▁Diego": 5196,
      "adelph": 5197,
      "▁cloud": 5198,
      "OM": 5199,
      "▁winning": 5200,
      "▁expansion": 5201,
      "enced": 5202,
      "▁Town": 5203,
      "▁Tri": 5204,
      "▁monitor": 5205,
      "overnor": 5206,
      "EW": 5207,
      "https://": 5208,
      "ump": 5209,
      "▁Ver": 5210,
      "td": 5211,
      "▁Toront": 5212,
      "nes": 5213,
      "▁pred": 5214,
      "▁far": 5215,
      "▁Grammy": 5216,
      "▁Wal": 5217,
      "▁Carl": 5218,
      "▁Jers": 5219,
      "erved": 5220,
      "ropolitan": 5221,
      "-sc": 5222,
      "▁U.": 5223,
      "▁Officer": 5224,
      "lying": 5225,
      "emale": 5226,
      "▁Climate": 5227,
      "▁Way": 5228,
      "▁prop": 5229,
      "▁23": 5230,
      "▁compris": 5231,
      "▁(J": 5232,
      "load": 5233,
      "▁vehicles": 5234,
      "▁pil": 5235,
      "-class": 5236,
      ".\nOn": 5237,
      "▁Asian": 5238,
      "▁Australian": 5239,
      "▁Earth": 5240,
      "▁Pennsylvan": 5241,
      "▁Wind": 5242,
      "▁blood": 5243,
      "OC": 5244,
      "onductor": 5245,
      "▁Park,": 5246,
      "▁hundred": 5247,
      "▁discover": 5248,
      "resp": 5249,
      "▁technology,": 5250,
      "▁Tour": 5251,
      "▁appointed": 5252,
      "ny": 5253,
      "cons": 5254,
      "itation": 5255,
      "▁chemical": 5256,
      "▁weap": 5257,
      "▁historical": 5258,
      "fenwo": 5259,
      "-20": 5260,
      "▁club": 5261,
      "▁Agency": 5262,
      "opy": 5263,
      "ened": 5264,
      "▁Iran": 5265,
      "▁Additional": 5266,
      "▁room": 5267,
      "▁rate": 5268,
      "▁money": 5269,
      "▁Ma": 5270,
      "▁medic": 5271,
      "P)": 5272,
      "▁surround": 5273,
      "▁books": 5274,
      "▁2017,": 5275,
      "▁paint": 5276,
      "▁raised": 5277,
      "▁Architect": 5278,
      "▁clear": 5279,
      "▁housing": 5280,
      "-k": 5281,
      "acc": 5282,
      "▁Comb": 5283,
      "pite": 5284,
      "▁body": 5285,
      "▁fle": 5286,
      "▁once": 5287,
      "vard": 5288,
      "band": 5289,
      "▁Bob": 5290,
      "▁tick": 5291,
      "▁mount": 5292,
      "▁Little": 5293,
      "ology,": 5294,
      "▁founder": 5295,
      "mon": 5296,
      "irit": 5297,
      "▁interests": 5298,
      "▁months": 5299,
      "▁80": 5300,
      "▁estimated": 5301,
      "resh": 5302,
      "▁agencies": 5303,
      "▁Ken": 5304,
      "▁2007": 5305,
      "urb": 5306,
      "\n(": 5307,
      "▁Strateg": 5308,
      "hi": 5309,
      "▁Spe": 5310,
      "▁supports": 5311,
      "▁bal": 5312,
      "compl": 5313,
      "▁instrument": 5314,
      "▁27": 5315,
      "▁Clin": 5316,
      "rison": 5317,
      "____": 5318,
      "wan": 5319,
      "▁Ha": 5320,
      "▁Tony": 5321,
      "▁Bas": 5322,
      "ST": 5323,
      "▁ord": 5324,
      "▁bus": 5325,
      "iant": 5326,
      "▁Zeal": 5327,
      "▁taking": 5328,
      "▁assess": 5329,
      "ries,": 5330,
      "▁plays": 5331,
      "-E": 5332,
      "▁Marine": 5333,
      "▁elected": 5334,
      "ly.": 5335,
      "CE": 5336,
      "ells": 5337,
      "aug": 5338,
      "▁panel": 5339,
      "▁Jul": 5340,
      "▁Advis": 5341,
      "▁application": 5342,
      "ita": 5343,
      "▁Di": 5344,
      "ony,": 5345,
      "▁Dec": 5346,
      "▁Carn": 5347,
      "OT": 5348,
      "▁benefits": 5349,
      "▁Italian": 5350,
      "▁lect": 5351,
      "anned": 5352,
      "commun": 5353,
      "ips": 5354,
      "▁2021,": 5355,
      "▁Fox": 5356,
      "▁forest": 5357,
      "ide,": 5358,
      "▁contact": 5359,
      "▁fram": 5360,
      "fenwoehr": 5361,
      "▁counter": 5362,
      "▁Joint": 5363,
      "▁native": 5364,
      "▁upd": 5365,
      "▁Blue": 5366,
      "▁determ": 5367,
      "13": 5368,
      "▁want": 5369,
      "▁Pict": 5370,
      "▁Bow": 5371,
      "▁funds": 5372,
      "▁Mur": 5373,
      "▁portfol": 5374,
      "▁award-winning": 5375,
      "▁strengthen": 5376,
      "ism,": 5377,
      "▁2006": 5378,
      "▁keep": 5379,
      "▁Medal": 5380,
      "▁C.": 5381,
      "\nBy": 5382,
      "▁beginning": 5383,
      "ette": 5384,
      "▁Johnson": 5385,
      "ater,": 5386,
      "▁2016,": 5387,
      "▁doctor": 5388,
      "raud": 5389,
      "▁Americans": 5390,
      "▁(20": 5391,
      "▁2019,": 5392,
      "▁Ho": 5393,
      "▁outside": 5394,
      "emiconductor": 5395,
      "▁teams": 5396,
      "▁Seatt": 5397,
      "▁species": 5398,
      "▁activity": 5399,
      "ouver": 5400,
      "▁programming": 5401,
      "▁26": 5402,
      "▁adapt": 5403,
      "oted": 5404,
      "▁nominated": 5405,
      "riends": 5406,
      "▁music,": 5407,
      "▁Frid": 5408,
      "▁box": 5409,
      "▁sem": 5410,
      "▁introduced": 5411,
      "▁Through": 5412,
      "RI": 5413,
      "▁sal": 5414,
      "▁Step": 5415,
      "▁behind": 5416,
      "▁distribution": 5417,
      "▁units": 5418,
      "▁writing": 5419,
      "▁Apple": 5420,
      "▁Ltd": 5421,
      "▁uses": 5422,
      "▁afford": 5423,
      "reaking": 5424,
      "ie,": 5425,
      "▁Ren": 5426,
      "▁pian": 5427,
      "UN": 5428,
      "ework": 5429,
      "ampionship": 5430,
      "pe,": 5431,
      "athan": 5432,
      "▁structure": 5433,
      "ves": 5434,
      "unk": 5435,
      "ecess": 5436,
      "▁Military": 5437,
      "▁fully": 5438,
      "ini": 5439,
      "bour": 5440,
      "▁eth": 5441,
      "▁similar": 5442,
      "lands": 5443,
      "▁separ": 5444,
      "▁changes": 5445,
      "▁Philadelph": 5446,
      "▁smart": 5447,
      "▁opening": 5448,
      "oke": 5449,
      "▁attend": 5450,
      "▁dynam": 5451,
      "▁County,": 5452,
      "▁enhance": 5453,
      "▁H.": 5454,
      "▁Now": 5455,
      "▁Illino": 5456,
      "▁\"The": 5457,
      "itzer": 5458,
      "ipl": 5459,
      "▁obt": 5460,
      "\nOn": 5461,
      "na": 5462,
      "▁2015,": 5463,
      "▁Review": 5464,
      "▁stories": 5465,
      "▁Micro": 5466,
      "ka": 5467,
      "▁net": 5468,
      "▁Boy": 5469,
      "▁Rh": 5470,
      ".\nAl": 5471,
      "rehensive": 5472,
      "▁command": 5473,
      "ancouver": 5474,
      "▁protection": 5475,
      "▁Communications": 5476,
      "zz": 5477,
      "▁tro": 5478,
      "▁experienc": 5479,
      "▁Trade": 5480,
      "▁Kn": 5481,
      "▁Omah": 5482,
      "▁Transport": 5483,
      "▁Down": 5484,
      "▁IT": 5485,
      "▁version": 5486,
      "ates,": 5487,
      "RA": 5488,
      "▁Ell": 5489,
      "▁--": 5490,
      "▁Author": 5491,
      "▁28": 5492,
      "▁Victor": 5493,
      "active": 5494,
      "ors,": 5495,
      "▁Cru": 5496,
      "▁standards": 5497,
      "▁Walk": 5498,
      "▁birth": 5499,
      "▁Hospital": 5500,
      "ented": 5501,
      "▁acceler": 5502,
      "iana": 5503,
      "\nAs": 5504,
      "▁.": 5505,
      "▁Support": 5506,
      "▁Ter": 5507,
      "▁electricity": 5508,
      "▁University.": 5509,
      "ula": 5510,
      "▁focuses": 5511,
      "▁Affairs": 5512,
      "▁quest": 5513,
      "▁whe": 5514,
      "ems": 5515,
      "▁E.": 5516,
      "▁Television": 5517,
      "\nPro": 5518,
      "▁immig": 5519,
      "▁Cast": 5520,
      "▁legend": 5521,
      "▁reli": 5522,
      "▁Award,": 5523,
      "aching": 5524,
      "▁nav": 5525,
      "alls": 5526,
      "▁round": 5527,
      "▁honored": 5528,
      "▁physical": 5529,
      "▁long-term": 5530,
      "▁greater": 5531,
      "▁ment": 5532,
      "tion": 5533,
      "▁course": 5534,
      "▁recipient": 5535,
      "▁acquisition": 5536,
      "▁nine": 5537,
      "▁Light": 5538,
      "▁accept": 5539,
      "▁recognition": 5540,
      "▁Attorney": 5541,
      "▁Family": 5542,
      "▁expanded": 5543,
      "▁Fair": 5544,
      "2)": 5545,
      "▁widely": 5546,
      "▁contains": 5547,
      "▁understanding": 5548,
      "amer": 5549,
      "▁Emmy": 5550,
      "▁particularly": 5551,
      "itch": 5552,
      "▁anti-": 5553,
      "▁Major": 5554,
      "▁Ur": 5555,
      "▁services,": 5556,
      "▁hosted": 5557,
      "istry": 5558,
      "▁Cost": 5559,
      "ien": 5560,
      "▁says": 5561,
      "▁company,": 5562,
      "▁Po": 5563,
      "▁society": 5564,
      "ca": 5565,
      ":00": 5566,
      "▁investments": 5567,
      "▁har": 5568,
      "SA": 5569,
      "▁Tre": 5570,
      "▁Twitter": 5571,
      "▁altern": 5572,
      "▁visual": 5573,
      "raq": 5574,
      "▁extra": 5575,
      "ils": 5576,
      "▁neighborhood": 5577,
      "ives,": 5578,
      "▁Two": 5579,
      "▁text": 5580,
      "▁phil": 5581,
      "▁residents": 5582,
      "▁Mid": 5583,
      "astic": 5584,
      "▁Us": 5585,
      "▁administration": 5586,
      "kin": 5587,
      "▁problem": 5588,
      "▁cancer": 5589,
      "▁Live": 5590,
      "▁https://www.": 5591,
      "anth": 5592,
      "▁Korean": 5593,
      "▁almost": 5594,
      "har": 5595,
      "▁remains": 5596,
      "ues,": 5597,
      "overs": 5598,
      "achus": 5599,
      "rack": 5600,
      "ibb": 5601,
      "acebook": 5602,
      "▁Ministry": 5603,
      "ansas": 5604,
      "▁stri": 5605,
      "lection": 5606,
      "-W": 5607,
      "▁“W": 5608,
      "▁Tenn": 5609,
      "ifth": 5610,
      "▁sil": 5611,
      "agement": 5612,
      "▁love": 5613,
      "▁Conserv": 5614,
      "ENT": 5615,
      "achusett": 5616,
      "▁Sand": 5617,
      "▁side": 5618,
      "-e": 5619,
      "lick": 5620,
      "▁Democr": 5621,
      "▁allows": 5622,
      "la": 5623,
      "▁Daniel": 5624,
      "▁epis": 5625,
      "stein": 5626,
      "▁aer": 5627,
      "▁criminal": 5628,
      "▁thousands": 5629,
      "LA": 5630,
      "▁Mic": 5631,
      "▁Men": 5632,
      "▁doll": 5633,
      "▁coal": 5634,
      "▁Canada,": 5635,
      "▁Northern": 5636,
      "▁Andrew": 5637,
      "▁occup": 5638,
      "rest": 5639,
      "▁70": 5640,
      "▁consists": 5641,
      "andid": 5642,
      "▁date": 5643,
      "▁flight": 5644,
      "▁35": 5645,
      "▁world's": 5646,
      "▁Initi": 5647,
      "▁clinical": 5648,
      "▁Chem": 5649,
      "E)": 5650,
      "ard,": 5651,
      "▁Cab": 5652,
      "▁Indones": 5653,
      "▁Dou": 5654,
      "ube": 5655,
      "rin": 5656,
      "▁nar": 5657,
      "▁reports": 5658,
      "-related": 5659,
      "▁Sa": 5660,
      "▁190": 5661,
      "▁Miam": 5662,
      "▁Environmental": 5663,
      "▁Van": 5664,
      "▁recognizes": 5665,
      "▁seg": 5666,
      "▁overall": 5667,
      "yan": 5668,
      "▁Prin": 5669,
      "raine": 5670,
      "awa": 5671,
      "▁premiere": 5672,
      "▁orchest": 5673,
      "▁500": 5674,
      "▁cris": 5675,
      "▁scen": 5676,
      "▁hydro": 5677,
      "▁markets": 5678,
      "▁Bell": 5679,
      "▁Mos": 5680,
      "DS": 5681,
      "▁favor": 5682,
      "ists,": 5683,
      "▁Techn": 5684,
      "▁effective": 5685,
      "▁D.": 5686,
      "▁util": 5687,
      "▁wireless": 5688,
      "ife,": 5689,
      "▁Data": 5690,
      "iful": 5691,
      "▁Jud": 5692,
      "▁fig": 5693,
      "lim": 5694,
      "▁planning": 5695,
      "▁reve": 5696,
      "▁arch": 5697,
      "▁Associate": 5698,
      "cif": 5699,
      "uled": 5700,
      "▁white": 5701,
      "ension": 5702,
      "▁operational": 5703,
      "▁Love": 5704,
      "▁titled": 5705,
      "▁primarily": 5706,
      "ronics": 5707,
      "▁wel": 5708,
      "n’t": 5709,
      "▁coming": 5710,
      "▁scientists": 5711,
      "▁expertise": 5712,
      "▁industries": 5713,
      "▁accompl": 5714,
      "▁Irish": 5715,
      "▁operates": 5716,
      "▁Intelligence": 5717,
      "▁About": 5718,
      "▁Osc": 5719,
      "▁landsc": 5720,
      "▁Sar": 5721,
      "▁advisor": 5722,
      "▁Mach": 5723,
      "▁192": 5724,
      "▁Arg": 5725,
      ".”\nThe": 5726,
      "▁techniqu": 5727,
      "▁Joseph": 5728,
      "illing": 5729,
      "ously": 5730,
      "MS": 5731,
      "▁peace": 5732,
      "II": 5733,
      "▁comedy": 5734,
      "range": 5735,
      "▁proud": 5736,
      "ming": 5737,
      "▁prote": 5738,
      "▁Ret": 5739,
      "ghan": 5740,
      "▁youth": 5741,
      "ares": 5742,
      "LE": 5743,
      "▁Writ": 5744,
      "▁move": 5745,
      "▁returned": 5746,
      "▁acquired": 5747,
      "arch": 5748,
      "▁incorpor": 5749,
      "▁coordin": 5750,
      "▁anniversary": 5751,
      "▁committe": 5752,
      "▁Georgia": 5753,
      "▁pros": 5754,
      "oky": 5755,
      ")\n": 5756,
      "aylor": 5757,
      "▁veter": 5758,
      "▁buildings": 5759,
      "▁algorith": 5760,
      "MA": 5761,
      "▁passed": 5762,
      "▁(US": 5763,
      "▁Achiev": 5764,
      "▁estate": 5765,
      "▁except": 5766,
      "NA": 5767,
      "▁fact": 5768,
      "▁takes": 5769,
      "▁football": 5770,
      "▁seas": 5771,
      "▁jobs": 5772,
      "lease": 5773,
      "andemic": 5774,
      "▁beyond": 5775,
      "▁Christian": 5776,
      "▁founding": 5777,
      "’re": 5778,
      "ores": 5779,
      "shop": 5780,
      "▁Michigan": 5781,
      "▁devices": 5782,
      "▁Coll": 5783,
      "eness": 5784,
      "▁Eastern": 5785,
      "erc": 5786,
      "ocated": 5787,
      "▁combined": 5788,
      "-0": 5789,
      "▁drive": 5790,
      "▁nor": 5791,
      "-to-": 5792,
      "▁computing": 5793,
      "iary": 5794,
      "▁Ham": 5795,
      "▁exhibition": 5796,
      "bl": 5797,
      "ines,": 5798,
      "▁undergraduate": 5799,
      "unch": 5800,
      "▁China,": 5801,
      "▁fans": 5802,
      "▁2018,": 5803,
      "bu": 5804,
      "▁Adam": 5805,
      "ster": 5806,
      "▁Jew": 5807,
      "▁inj": 5808,
      "fect": 5809,
      "heim": 5810,
      "▁helping": 5811,
      "▁say": 5812,
      "▁Ire": 5813,
      "▁print": 5814,
      "▁Joe": 5815,
      "▁writer": 5816,
      "ening": 5817,
      "▁Group,": 5818,
      "▁mem": 5819,
      "roy": 5820,
      "▁strategy": 5821,
      "▁agency": 5822,
      "▁Luc": 5823,
      "-3": 5824,
      "▁Beach": 5825,
      "▁employees": 5826,
      "▁presence": 5827,
      "▁2022,": 5828,
      "rief": 5829,
      "▁Roman": 5830,
      "▁shared": 5831,
      "▁Memorial": 5832,
      "▁alumni": 5833,
      "ogle": 5834,
      "▁sche": 5835,
      "rier": 5836,
      "▁“F": 5837,
      "▁:": 5838,
      "▁$3": 5839,
      "incol": 5840,
      "lights": 5841,
      "▁announce": 5842,
      "▁Pop": 5843,
      "▁policies": 5844,
      "odes": 5845,
      "chieve": 5846,
      "▁Rail": 5847,
      "-spe": 5848,
      "▁Equ": 5849,
      "ccording": 5850,
      "▁3,": 5851,
      "▁gam": 5852,
      "oid": 5853,
      "▁Ohio": 5854,
      "utt": 5855,
      "▁mean": 5856,
      "▁R.": 5857,
      "▁below": 5858,
      "▁Digital": 5859,
      "▁location": 5860,
      "inet": 5861,
      "▁laws": 5862,
      "▁Kim": 5863,
      "▁Jackson": 5864,
      "respond": 5865,
      "is.": 5866,
      "aska": 5867,
      "▁winn": 5868,
      "ifying": 5869,
      "▁friend": 5870,
      "▁Senior": 5871,
      "▁virtual": 5872,
      "▁Anton": 5873,
      "▁Hom": 5874,
      "▁officials": 5875,
      "▁jud": 5876,
      "▁Cub": 5877,
      "▁(w": 5878,
      "add": 5879,
      "▁assistance": 5880,
      "▁draw": 5881,
      "going": 5882,
      "▁never": 5883,
      "ences,": 5884,
      "▁film,": 5885,
      "▁passion": 5886,
      "\nFor": 5887,
      "▁Scient": 5888,
      "ville,": 5889,
      "▁cooperation": 5890,
      "sw": 5891,
      "▁Iraq": 5892,
      "▁“We": 5893,
      "rich": 5894,
      "▁DC": 5895,
      "oring": 5896,
      "▁Europe,": 5897,
      "▁vocal": 5898,
      "ergy,": 5899,
      "▁Massachusett": 5900,
      "▁history,": 5901,
      "▁costs": 5902,
      "ament": 5903,
      "▁spect": 5904,
      "▁portfolio": 5905,
      "▁recomm": 5906,
      "▁celebrated": 5907,
      "ani": 5908,
      "▁division": 5909,
      "▁Mat": 5910,
      "▁proposed": 5911,
      "▁PhD": 5912,
      "TC": 5913,
      "ale,": 5914,
      "ities,": 5915,
      "\",": 5916,
      "▁pric": 5917,
      "▁Medicine": 5918,
      "▁territ": 5919,
      "▁adj": 5920,
      "edu": 5921,
      "▁explore": 5922,
      "▁education,": 5923,
      "▁Building": 5924,
      "▁hy": 5925,
      "▁COVID": 5926,
      "▁Queen": 5927,
      "ories": 5928,
      "TV": 5929,
      "thing": 5930,
      "iece": 5931,
      "▁2014,": 5932,
      "ises": 5933,
      "▁cou": 5934,
      "former": 5935,
      "▁efficient": 5936,
      "▁emerging": 5937,
      "▁theatre": 5938,
      "75": 5939,
      "za": 5940,
      "▁sci": 5941,
      "pose": 5942,
      "thlet": 5943,
      "▁Harvard": 5944,
      "▁communication": 5945,
      "▁fish": 5946,
      "▁gold": 5947,
      "▁chamber": 5948,
      "hy": 5949,
      "▁brings": 5950,
      "rolled": 5951,
      "it,": 5952,
      "▁Saf": 5953,
      "▁effects": 5954,
      "-to": 5955,
      "▁taken": 5956,
      "men": 5957,
      "ala": 5958,
      "osystem": 5959,
      "▁achieve": 5960,
      "▁Free": 5961,
      "▁industry,": 5962,
      "▁er": 5963,
      "▁operation": 5964,
      "▁W.": 5965,
      "▁execut": 5966,
      "▁please": 5967,
      "▁attended": 5968,
      "ician": 5969,
      "▁rural": 5970,
      "▁Lo": 5971,
      "OW": 5972,
      "oved": 5973,
      "burgh": 5974,
      "▁evalu": 5975,
      "▁tools": 5976,
      "▁Forest": 5977,
      "▁Country": 5978,
      "▁,": 5979,
      "▁rich": 5980,
      "▁Golden": 5981,
      "ards": 5982,
      "▁Dev": 5983,
      "▁Swed": 5984,
      "▁cerem": 5985,
      "▁Grant": 5986,
      "▁Mobile": 5987,
      "▁arran": 5988,
      "▁filmm": 5989,
      "▁(199": 5990,
      "CH": 5991,
      "▁conflic": 5992,
      "3)": 5993,
      "▁Liber": 5994,
      "▁Chairman": 5995,
      "▁son": 5996,
      "self": 5997,
      "▁Vancouver": 5998,
      "▁AR": 5999,
      "abeth": 6000,
      "▁families": 6001,
      "▁BBC": 6002,
      "▁Curr": 6003,
      "anda": 6004,
      "▁facilit": 6005,
      "▁remain": 6006,
      "▁Mountain": 6007,
      "▁directly": 6008,
      "▁nature": 6009,
      "▁stars": 6010,
      "ently,": 6011,
      "▁Atlantic": 6012,
      "▁reached": 6013,
      "-cent": 6014,
      "▁’": 6015,
      "▁originally": 6016,
      "▁comes": 6017,
      "▁Prime": 6018,
      "▁police": 6019,
      "isions": 6020,
      "▁Foundation,": 6021,
      "▁renowned": 6022,
      "▁Phys": 6023,
      "▁i": 6024,
      "ollowing": 6025,
      "ius": 6026,
      "▁chart": 6027,
      "▁Police": 6028,
      "itz": 6029,
      "▁average": 6030,
      "▁clients": 6031,
      "▁Your": 6032,
      "cing": 6033,
      "mond": 6034,
      "▁2.": 6035,
      "▁Children": 6036,
      "-scale": 6037,
      "win": 6038,
      "▁east": 6039,
      "▁R&": 6040,
      "enge": 6041,
      "▁musician": 6042,
      "▁optim": 6043,
      "▁joining": 6044,
      "▁Mond": 6045,
      "ureau": 6046,
      "▁repl": 6047,
      "▁traffic": 6048,
      "▁Philipp": 6049,
      "rig": 6050,
      "▁Sound": 6051,
      "▁sources": 6052,
      "▁Cup": 6053,
      "▁Barb": 6054,
      "os,": 6055,
      "▁assistant": 6056,
      "▁Fire": 6057,
      "▁quant": 6058,
      "▁Camb": 6059,
      "▁Tele": 6060,
      "▁Corps": 6061,
      "▁priv": 6062,
      "▁Senate": 6063,
      "▁surv": 6064,
      "-profit": 6065,
      "-American": 6066,
      "iov": 6067,
      "▁missile": 6068,
      "▁prof": 6069,
      "ria": 6070,
      "▁(in": 6071,
      "▁style": 6072,
      "s.\nS": 6073,
      "ographic": 6074,
      "arian": 6075,
      "▁loss": 6076,
      "pro": 6077,
      "▁workers": 6078,
      "▁initiatives": 6079,
      "unte": 6080,
      "▁Investment": 6081,
      "▁others.": 6082,
      "ye": 6083,
      "▁give": 6084,
      "▁label": 6085,
      "edd": 6086,
      "▁MIT": 6087,
      "\nNew": 6088,
      "▁parts": 6089,
      "enty": 6090,
      "▁transition": 6091,
      "▁terror": 6092,
      "▁fellow": 6093,
      "orship": 6094,
      "▁Main": 6095,
      "▁creation": 6096,
      "\n\"": 6097,
      "▁design,": 6098,
      "itting": 6099,
      "aul": 6100,
      "▁2005": 6101,
      "audi": 6102,
      "▁Inc.,": 6103,
      "▁aims": 6104,
      "▁core": 6105,
      "▁Band": 6106,
      "cia": 6107,
      "▁healthcare": 6108,
      "▁Award.": 6109,
      "ancy": 6110,
      "▁needed": 6111,
      "▁audience": 6112,
      "▁TO": 6113,
      "pper": 6114,
      "▁3D": 6115,
      "▁channel": 6116,
      "▁Sports": 6117,
      "ecurity": 6118,
      "▁credits": 6119,
      "egie": 6120,
      "ogue": 6121,
      "ault": 6122,
      "▁Sum": 6123,
      "kins": 6124,
      "▁Ariz": 6125,
      "▁chain": 6126,
      "pert": 6127,
      "▁above": 6128,
      "▁sched": 6129,
      "alle": 6130,
      ".\n19": 6131,
      "▁Mag": 6132,
      "▁Ocean": 6133,
      "▁enable": 6134,
      "▁Henry": 6135,
      "▁networks": 6136,
      "▁improving": 6137,
      "▁p.": 6138,
      "uments": 6139,
      "▁Spring": 6140,
      "▁composer": 6141,
      "▁underst": 6142,
      "iscipl": 6143,
      "▁Amazon": 6144,
      "s.\nIn": 6145,
      "▁Jun": 6146,
      "▁Circ": 6147,
      "▁Lincol": 6148,
      "▁enabl": 6149,
      "▁prep": 6150,
      "▁Industry": 6151,
      "▁terms": 6152,
      "TM": 6153,
      "▁biggest": 6154,
      "▁cellular": 6155,
      "▁centre": 6156,
      "▁reflect": 6157,
      "▁classical": 6158,
      "ely,": 6159,
      "▁ranked": 6160,
      "This": 6161,
      "▁Bern": 6162,
      "Ph": 6163,
      "▁attempt": 6164,
      "▁guid": 6165,
      "illage": 6166,
      "▁architecture": 6167,
      "▁export": 6168,
      "▁Second": 6169,
      "▁Ram": 6170,
      "▁becoming": 6171,
      "istance": 6172,
      "▁father": 6173,
      "▁Old": 6174,
      "▁Id": 6175,
      "gypt": 6176,
      "▁satellite": 6177,
      "▁cal": 6178,
      "▁importance": 6179,
      "▁comprehensive": 6180,
      "rat": 6181,
      "▁respond": 6182,
      "▁emp": 6183,
      "▁stock": 6184,
      "▁communic": 6185,
      "IP": 6186,
      "TH": 6187,
      "▁sites": 6188,
      "are,": 6189,
      "▁Cell": 6190,
      "well": 6191,
      "▁Italy": 6192,
      "▁piano": 6193,
      "ects": 6194,
      "▁Far": 6195,
      "▁What": 6196,
      "▁Records": 6197,
      "▁grand": 6198,
      "▁approved": 6199,
      "▁powerful": 6200,
      "thers": 6201,
      "▁Disc": 6202,
      "gov": 6203,
      "▁Solar": 6204,
      "redit": 6205,
      "▁acres": 6206,
      "▁display": 6207,
      "inf": 6208,
      "▁and,": 6209,
      "abit": 6210,
      "SE": 6211,
      "▁drama": 6212,
      "▁players": 6213,
      "etty": 6214,
      "▁20th": 6215,
      "▁Sign": 6216,
      "▁budget": 6217,
      "▁diversity": 6218,
      "▁patient": 6219,
      "▁officer": 6220,
      "wa": 6221,
      "mitted": 6222,
      "FL": 6223,
      "▁science,": 6224,
      "ustain": 6225,
      "▁Fred": 6226,
      "occ": 6227,
      "hew": 6228,
      "▁Exc": 6229,
      "▁essential": 6230,
      "▁face": 6231,
      "▁therap": 6232,
      "▁hours": 6233,
      "▁suggest": 6234,
      "▁indic": 6235,
      "▁Control": 6236,
      "lyn": 6237,
      "ella": 6238,
      "▁mother": 6239,
      "itness": 6240,
      "▁Houston": 6241,
      "hemat": 6242,
      "1)": 6243,
      "▁Jones": 6244,
      "▁Achievement": 6245,
      "quad": 6246,
      "lobe": 6247,
      "45": 6248,
      "▁arm": 6249,
      "time": 6250,
      "▁Jac": 6251,
      "▁Anal": 6252,
      "ospace": 6253,
      "▁Graduate": 6254,
      "umer": 6255,
      "▁Hor": 6256,
      "▁means": 6257,
      "▁lay": 6258,
      "ested": 6259,
      "omp": 6260,
      "▁“D": 6261,
      "▁Innovation": 6262,
      "▁III": 6263,
      "▁Financial": 6264,
      "▁@": 6265,
      "▁exchange": 6266,
      "AE": 6267,
      "▁let": 6268,
      "▁search": 6269,
      "▁Nev": 6270,
      "▁Stanford": 6271,
      "▁Laboratory": 6272,
      "▁Spain": 6273,
      "▁think": 6274,
      "▁Carnegie": 6275,
      "soft": 6276,
      "ooking": 6277,
      "-pro": 6278,
      "oe": 6279,
      "▁EU": 6280,
      "▁Edward": 6281,
      "▁certain": 6282,
      "en.": 6283,
      "irection": 6284,
      "DC": 6285,
      "rass": 6286,
      "\nY": 6287,
      "▁electrical": 6288,
      "bassador": 6289,
      "▁sect": 6290,
      "▁Initiative": 6291,
      "▁Alab": 6292,
      "▁fields": 6293,
      "▁compl": 6294,
      "mas": 6295,
      "▁Sea": 6296,
      "▁female": 6297,
      "illy": 6298,
      "▁series,": 6299,
      "s’": 6300,
      "▁Kent": 6301,
      "vant": 6302,
      "utical": 6303,
      "/M": 6304,
      "▁Zealand": 6305,
      "▁Chris": 6306,
      "▁Honor": 6307,
      "▁(b": 6308,
      "▁yet": 6309,
      "▁90": 6310,
      "▁Steve": 6311,
      "aves": 6312,
      "▁Satur": 6313,
      "▁temper": 6314,
      "▁Ut": 6315,
      "etime": 6316,
      "vin": 6317,
      "k,": 6318,
      "▁imag": 6319,
      "ium,": 6320,
      "▁include:": 6321,
      "▁scale": 6322,
      "▁Artist": 6323,
      "▁graduated": 6324,
      "ss": 6325,
      "at,": 6326,
      "inational": 6327,
      "▁Dall": 6328,
      ")\nB": 6329,
      "▁decades": 6330,
      "ominated": 6331,
      "'t": 6332,
      "▁distin": 6333,
      "igenous": 6334,
      "▁reform": 6335,
      "able,": 6336,
      "▁Musical": 6337,
      "▁principal": 6338,
      "▁scholarship": 6339,
      "▁candid": 6340,
      "▁pandemic": 6341,
      "▁program,": 6342,
      "▁construct": 6343,
      "-J": 6344,
      "▁gall": 6345,
      "▁sea": 6346,
      "▁+": 6347,
      "▁issue": 6348,
      "▁flow": 6349,
      "▁always": 6350,
      "▁Liter": 6351,
      "▁organized": 6352,
      "profit": 6353,
      "wareness": 6354,
      "▁ball": 6355,
      "▁Corp": 6356,
      "▁Lin": 6357,
      "\nUn": 6358,
      "▁1990": 6359,
      "isciplinary": 6360,
      "▁Alliance": 6361,
      "▁downtown": 6362,
      "▁bringing": 6363,
      "▁conductor": 6364,
      "▁decad": 6365,
      "▁ongoing": 6366,
      "▁regist": 6367,
      "▁minor": 6368,
      "▁Regional": 6369,
      "utes": 6370,
      "cluding": 6371,
      "▁Clark": 6372,
      "▁secret": 6373,
      "▁efficiency": 6374,
      "uff": 6375,
      "▁type": 6376,
      "▁marketing": 6377,
      "on.": 6378,
      "▁newly": 6379,
      "▁artistic": 6380,
      "▁contain": 6381,
      "▁practices": 6382,
      "▁Summer": 6383,
      "▁(“": 6384,
      "▁showc": 6385,
      "ón": 6386,
      "▁provider": 6387,
      "ription": 6388,
      "▁passeng": 6389,
      "▁Fame": 6390,
      "\nTh": 6391,
      "▁officially": 6392,
      "imum": 6393,
      "▁nation’s": 6394,
      "▁Rod": 6395,
      "▁O’": 6396,
      "▁residential": 6397,
      "▁contributed": 6398,
      "▁Trust": 6399,
      "▁Syd": 6400,
      "▁Jord": 6401,
      "▁headquarters": 6402,
      "ighter": 6403,
      "aled": 6404,
      "▁comment": 6405,
      "▁“H": 6406,
      "oom": 6407,
      "ession": 6408,
      "▁poet": 6409,
      "▁attention": 6410,
      "▁Leon": 6411,
      "▁Taylor": 6412,
      "▁Ray": 6413,
      "▁Grafenwoehr": 6414,
      "▁If": 6415,
      "▁Facebook": 6416,
      "▁Peace": 6417,
      "▁Eric": 6418,
      "▁magazine": 6419,
      "▁licens": 6420,
      "▁offered": 6421,
      "aling": 6422,
      "▁grew": 6423,
      "▁4,": 6424,
      "**": 6425,
      "▁album,": 6426,
      "▁animal": 6427,
      "▁Real": 6428,
      ".\nSt": 6429,
      "▁Singapore": 6430,
      "▁color": 6431,
      "▁Pen": 6432,
      "▁woman": 6433,
      "▁Many": 6434,
      "▁size": 6435,
      "▁diss": 6436,
      "▁issued": 6437,
      "▁semiconductor": 6438,
      "urning": 6439,
      "▁Bang": 6440,
      "▁conditions": 6441,
      "o’s": 6442,
      "▁Islam": 6443,
      "▁revenue": 6444,
      "▁customer": 6445,
      "▁influence": 6446,
      "▁Germany,": 6447,
      "▁29": 6448,
      "aceutical": 6449,
      "rence": 6450,
      "▁Afghan": 6451,
      "ite,": 6452,
      "....": 6453,
      "itime": 6454,
      "▁Historic": 6455,
      "▁highlight": 6456,
      "bec": 6457,
      "▁km": 6458,
      "▁theor": 6459,
      "aria": 6460,
      "rating": 6461,
      "▁producing": 6462,
      "water": 6463,
      "▁1980": 6464,
      "▁Max": 6465,
      "▁prison": 6466,
      "”.": 6467,
      "phas": 6468,
      "▁oldest": 6469,
      "▁Connect": 6470,
      "▁taught": 6471,
      "▁country’s": 6472,
      "hatt": 6473,
      "pped": 6474,
      "RE": 6475,
      "▁processing": 6476,
      "writer": 6477,
      "▁Organization": 6478,
      "▁tradition": 6479,
      "▁(V": 6480,
      "▁Party": 6481,
      "▁municip": 6482,
      "▁Chap": 6483,
      "▁Fish": 6484,
      "▁player": 6485,
      "▁towards": 6486,
      "▁leads": 6487,
      "izabeth": 6488,
      "uls": 6489,
      "▁edition": 6490,
      "osoph": 6491,
      "▁classic": 6492,
      "▁Vol": 6493,
      "artered": 6494,
      "anch": 6495,
      "▁der": 6496,
      "▁Tech": 6497,
      "▁Lincoln": 6498,
      "▁quickly": 6499,
      "▁Sup": 6500,
      "▁pow": 6501,
      "BI": 6502,
      "ability,": 6503,
      "▁manager": 6504,
      "▁pict": 6505,
      "issipp": 6506,
      "▁Heritage": 6507,
      "otive": 6508,
      "▁iconic": 6509,
      "▁Colorado": 6510,
      "▁Anim": 6511,
      "▁cyber": 6512,
      "▁Modern": 6513,
      "den": 6514,
      "▁Ven": 6515,
      "▁centers": 6516,
      "▁agricultural": 6517,
      "▁Tenness": 6518,
      "▁America’s": 6519,
      "▁musicians": 6520,
      "▁industry.": 6521,
      "▁Celeb": 6522,
      "▁Ens": 6523,
      "▁daily": 6524,
      "enance": 6525,
      "ator,": 6526,
      "/C": 6527,
      "▁“P": 6528,
      "▁system,": 6529,
      "▁Angeles,": 6530,
      "▁brain": 6531,
      "ker": 6532,
      "▁CN": 6533,
      "▁flood": 6534,
      "▁necess": 6535,
      "▁robot": 6536,
      "armaceutical": 6537,
      "ases,": 6538,
      "▁2004": 6539,
      "fficient": 6540,
      "▁Niger": 6541,
      "▁Berlin": 6542,
      "▁methods": 6543,
      "▁inspired": 6544,
      "▁Ly": 6545,
      "▁purchase": 6546,
      "▁prize": 6547,
      "▁fourth": 6548,
      "▁heavy": 6549,
      "▁election": 6550,
      "lah": 6551,
      "▁minist": 6552,
      "▁positive": 6553,
      "ror": 6554,
      "St": 6555,
      "auth": 6556,
      "-4": 6557,
      "S,": 6558,
      "▁pip": 6559,
      "▁Tai": 6560,
      "▁7th": 6561,
      "▁correspond": 6562,
      "iden": 6563,
      "och": 6564,
      "▁majority": 6565,
      "▁stand": 6566,
      "ither": 6567,
      "onial": 6568,
      "▁COVID-19": 6569,
      "▁walk": 6570,
      "▁records": 6571,
      "oti": 6572,
      "▁diffic": 6573,
      "▁Ins": 6574,
      "argo": 6575,
      "▁testing": 6576,
      "▁Actor": 6577,
      "▁vict": 6578,
      "▁Cr": 6579,
      "▁ways": 6580,
      "▁significantly": 6581,
      "▁Member": 6582,
      "ress,": 6583,
      "ouri": 6584,
      "andy": 6585,
      "▁problems": 6586,
      "▁Egypt": 6587,
      "▁regularly": 6588,
      "▁Also": 6589,
      "▁income": 6590,
      "▁Story": 6591,
      "▁Minn": 6592,
      "▁Inst": 6593,
      "▁Prince": 6594,
      "iplom": 6595,
      "▁concent": 6596,
      "▁immedi": 6597,
      ".\nAfter": 6598,
      "artet": 6599,
      "ples": 6600,
      "iro": 6601,
      "▁qual": 6602,
      "▁Google": 6603,
      "opping": 6604,
      "▁cinem": 6605,
      "▁Kh": 6606,
      "▁cases": 6607,
      "TER": 6608,
      "▁Battle": 6609,
      "▁degrees": 6610,
      "▁equity": 6611,
      "▁Eth": 6612,
      "icon": 6613,
      "outheast": 6614,
      "etting": 6615,
      "enth": 6616,
      "▁types": 6617,
      "▁Cath": 6618,
      "itable": 6619,
      "▁Oak": 6620,
      "▁trail": 6621,
      "▁venture": 6622,
      "▁systems.": 6623,
      "▁cann": 6624,
      "▁Stephen": 6625,
      "▁ecosystem": 6626,
      "▁oppos": 6627,
      "▁articles": 6628,
      "▁upcoming": 6629,
      "▁reducing": 6630,
      "▁mom": 6631,
      "▁sus": 6632,
      "▁u": 6633,
      "uts": 6634,
      "▁citizens": 6635,
      "lines": 6636,
      "▁models": 6637,
      "c.": 6638,
      "▁“O": 6639,
      "▁pilot": 6640,
      "▁Bureau": 6641,
      "▁vide": 6642,
      "▁managed": 6643,
      "ength": 6644,
      "▁investors": 6645,
      "▁millions": 6646,
      "▁soon": 6647,
      "▁prominent": 6648,
      "▁Student": 6649,
      "▁successfully": 6650,
      "▁Wars": 6651,
      "/A": 6652,
      "▁Roll": 6653,
      "▁beg": 6654,
      "▁(The": 6655,
      "▁delivery": 6656,
      "▁nonprofit": 6657,
      "▁kind": 6658,
      "anks": 6659,
      "rance": 6660,
      "thur": 6661,
      "ibbean": 6662,
      "am,": 6663,
      "▁adult": 6664,
      "▁Test": 6665,
      "▁Agricult": 6666,
      "▁audiences": 6667,
      "embly": 6668,
      "▁participate": 6669,
      "▁happ": 6670,
      "▁Nash": 6671,
      "▁Hold": 6672,
      "▁funded": 6673,
      "▁“L": 6674,
      "▁1st": 6675,
      "▁cause": 6676,
      "▁Fed": 6677,
      "▁Mexican": 6678,
      "▁courses": 6679,
      "▁NASA": 6680,
      "▁Emp": 6681,
      "▁aid": 6682,
      "▁2012,": 6683,
      "▁annually": 6684,
      "resents": 6685,
      "D)": 6686,
      "▁competitive": 6687,
      "▁notable": 6688,
      "▁Production": 6689,
      "▁cry": 6690,
      "▁Company,": 6691,
      "▁hundreds": 6692,
      "rap": 6693,
      "-old": 6694,
      "▁word": 6695,
      "▁newsp": 6696,
      "▁earlier": 6697,
      "▁Stock": 6698,
      "▁operate": 6699,
      "▁justice": 6700,
      "▁Os": 6701,
      "ration,": 6702,
      "▁Toky": 6703,
      "ourney": 6704,
      "▁grants": 6705,
      "m,": 6706,
      "▁Studio": 6707,
      "▁measure": 6708,
      "▁offices": 6709,
      "▁catal": 6710,
      "▁skills": 6711,
      "▁Prior": 6712,
      "▁participated": 6713,
      "▁Last": 6714,
      "▁Collection": 6715,
      "ent,": 6716,
      "▁advert": 6717,
      "▁Saudi": 6718,
      "▁2013,": 6719,
      "▁chore": 6720,
      "▁Wis": 6721,
      "▁Performance": 6722,
      "▁mig": 6723,
      "▁P.": 6724,
      "oviet": 6725,
      "▁Wik": 6726,
      "▁Piano": 6727,
      "▁$1.": 6728,
      "▁Oscar": 6729,
      "▁northern": 6730,
      "▁Bru": 6731,
      "▁games": 6732,
      "-O": 6733,
      "zen": 6734,
      "▁Ap": 6735,
      "iller": 6736,
      "▁Lis": 6737,
      "▁emphas": 6738,
      "ati": 6739,
      "▁Nether": 6740,
      "gory": 6741,
      "-U": 6742,
      "▁Hy": 6743,
      "▁users": 6744,
      "▁AP": 6745,
      "akh": 6746,
      "ecast": 6747,
      "▁excellence": 6748,
      "▁graph": 6749,
      "door": 6750,
      "▁1950": 6751,
      "▁Computing": 6752,
      "▁Additionally,": 6753,
      "ellect": 6754,
      "▁Rem": 6755,
      "▁compared": 6756,
      "▁speed": 6757,
      "▁theater": 6758,
      "rates": 6759,
      "eing": 6760,
      "▁aspect": 6761,
      "▁Conf": 6762,
      ".\nTh": 6763,
      "▁example,": 6764,
      "▁inaug": 6765,
      "▁surface": 6766,
      "avid": 6767,
      "▁Jersey": 6768,
      "▁task": 6769,
      "▁Alumn": 6770,
      "▁carry": 6771,
      "▁Deb": 6772,
      "▁Hop": 6773,
      "ulpt": 6774,
      "▁trial": 6775,
      "▁Viol": 6776,
      "▁acting": 6777,
      "▁airport": 6778,
      "▁consider": 6779,
      "▁Electric": 6780,
      "▁Ford": 6781,
      "▁Seattle": 6782,
      "▁Vent": 6783,
      "▁189": 6784,
      "65": 6785,
      "▁institution": 6786,
      "▁diagn": 6787,
      "▁Anth": 6788,
      "▁himself": 6789,
      "▁http://www.": 6790,
      "▁winners": 6791,
      "ocol": 6792,
      "▁personnel": 6793,
      "▁Kennedy": 6794,
      "▁locations": 6795,
      "▁Island,": 6796,
      "▁tre": 6797,
      "▁prepar": 6798,
      "▁san": 6799,
      "▁helps": 6800,
      "▁Symphony,": 6801,
      "▁Avenue": 6802,
      "▁convers": 6803,
      "▁CA": 6804,
      "ampion": 6805,
      "▁Action": 6806,
      "▁conservation": 6807,
      "▁Lew": 6808,
      "▁ast": 6809,
      "evin": 6810,
      "▁300": 6811,
      "▁gave": 6812,
      "BM": 6813,
      "▁restaurant": 6814,
      "▁Phot": 6815,
      "▁subsequ": 6816,
      "▁companies,": 6817,
      "▁resource": 6818,
      "▁ver": 6819,
      "▁Mike": 6820,
      "▁papers": 6821,
      "88": 6822,
      "▁Jewish": 6823,
      "▁Magazine": 6824,
      "eller": 6825,
      "▁Pak": 6826,
      "ednes": 6827,
      "▁Mississipp": 6828,
      "▁represents": 6829,
      "▁div": 6830,
      "▁race": 6831,
      "24": 6832,
      "-201": 6833,
      "\n19": 6834,
      "▁fellowship": 6835,
      "ire,": 6836,
      ".D.,": 6837,
      "▁orig": 6838,
      "▁operated": 6839,
      "▁School,": 6840,
      "▁1970": 6841,
      "chang": 6842,
      "▁sport": 6843,
      "itled": 6844,
      "ounded": 6845,
      ".\nCh": 6846,
      "▁quarter": 6847,
      "▁likely": 6848,
      "▁perman": 6849,
      "▁hotel": 6850,
      "▁mer": 6851,
      "uing": 6852,
      "▁Line": 6853,
      "▁advant": 6854,
      "▁moving": 6855,
      "um,": 6856,
      "▁Ball": 6857,
      "▁Balt": 6858,
      "▁finance": 6859,
      "▁plants": 6860,
      "quality": 6861,
      "▁noted": 6862,
      "▁harm": 6863,
      "▁Doctor": 6864,
      "▁magn": 6865,
      "▁Ep": 6866,
      "nic": 6867,
      "▁Williams": 6868,
      "anning": 6869,
      "esh": 6870,
      "agram": 6871,
      "ifer": 6872,
      "▁Girl": 6873,
      "▁asset": 6874,
      "usiness,": 6875,
      "▁upg": 6876,
      "▁Trail": 6877,
      "atin": 6878,
      "FA": 6879,
      "▁Mah": 6880,
      "▁listed": 6881,
      "▁(s": 6882,
      "itors": 6883,
      "▁lit": 6884,
      "▁D.C.": 6885,
      "min": 6886,
      "▁Creat": 6887,
      "actions": 6888,
      "▁Base": 6889,
      "▁Oreg": 6890,
      "▁Aer": 6891,
      "▁improved": 6892,
      "▁MS": 6893,
      "▁Channel": 6894,
      "▁hum": 6895,
      "▁Sir": 6896,
      "▁itself": 6897,
      "▁assets": 6898,
      "▁mob": 6899,
      "▁internationally": 6900,
      "▁regulatory": 6901,
      "co,": 6902,
      "omm": 6903,
      "▁Corn": 6904,
      "▁represented": 6905,
      "asters": 6906,
      "▁Ukraine": 6907,
      "▁Op": 6908,
      "▁Rog": 6909,
      "▁married": 6910,
      "▁representing": 6911,
      ".\n“The": 6912,
      "▁affili": 6913,
      "▁distributed": 6914,
      "cess,": 6915,
      "▁western": 6916,
      "▁mil": 6917,
      "MP": 6918,
      "▁fresh": 6919,
      "▁mess": 6920,
      "-on": 6921,
      "an.": 6922,
      "▁device": 6923,
      "▁London,": 6924,
      "oster": 6925,
      "▁2011,": 6926,
      "▁hub": 6927,
      "▁framework": 6928,
      "▁Ast": 6929,
      "ary,": 6930,
      ")\nThe": 6931,
      "brid": 6932,
      "▁decade": 6933,
      "ener": 6934,
      "▁Illinois": 6935,
      "▁wife": 6936,
      "▁Crit": 6937,
      "▁sum": 6938,
      "▁Lad": 6939,
      "▁Represent": 6940,
      "ropri": 6941,
      "▁Philadelphia": 6942,
      "▁phone": 6943,
      "▁150": 6944,
      "resident": 6945,
      "▁Dream": 6946,
      ".\nIt": 6947,
      "▁lack": 6948,
      "▁Announ": 6949,
      "▁basic": 6950,
      "▁expanding": 6951,
      "▁watch": 6952,
      "osis": 6953,
      "e,”": 6954,
      "▁Ms.": 6955,
      "BO": 6956,
      "▁fraud": 6957,
      "▁however,": 6958,
      "▁Dun": 6959,
      "▁Detro": 6960,
      "▁transl": 6961,
      "s.\nC": 6962,
      "▁College,": 6963,
      "▁Natural": 6964,
      "▁Mutual": 6965,
      "▁actress": 6966,
      "▁work,": 6967,
      "▁molec": 6968,
      "▁invited": 6969,
      "▁buy": 6970,
      "orne": 6971,
      "▁Ra": 6972,
      "▁(Ph.D.": 6973,
      "isation": 6974,
      "▁though": 6975,
      "\nAd": 6976,
      "ias": 6977,
      "▁Las": 6978,
      "adium": 6979,
      "▁suff": 6980,
      "ight,": 6981,
      "▁Oklah": 6982,
      "▁specif": 6983,
      "▁Li": 6984,
      "onald": 6985,
      "esc": 6986,
      "▁Cross": 6987,
      "▁Governor": 6988,
      "▁hor": 6989,
      "▁waste": 6990,
      "ennial": 6991,
      "izon": 6992,
      "▁chairman": 6993,
      "▁Urban": 6994,
      "▁F.": 6995,
      "▁Annual": 6996,
      "▁Dut": 6997,
      "au,": 6998,
      "▁Argent": 6999,
      "▁Forces": 7000,
      "▁Er": 7001,
      "▁forms": 7002,
      "▁Pennsylvania": 7003,
      "▁Four": 7004,
      "▁Hall,": 7005,
      "▁affordable": 7006,
      "▁becomes": 7007,
      "▁albums": 7008,
      "mosph": 7009,
      "▁spot": 7010,
      "▁Partnership": 7011,
      "ective": 7012,
      "▁artificial": 7013,
      "way,": 7014,
      "ba": 7015,
      "▁tow": 7016,
      "usion": 7017,
      "▁Nel": 7018,
      "aughter": 7019,
      "ato": 7020,
      "▁Feat": 7021,
      "▁Technical": 7022,
      "ateral": 7023,
      "▁background": 7024,
      "EA": 7025,
      "do": 7026,
      "▁stake": 7027,
      "ellectual": 7028,
      "▁2003": 7029,
      "▁France,": 7030,
      "▁Brand": 7031,
      "▁battery": 7032,
      "▁caused": 7033,
      "▁Naval": 7034,
      "▁NBC": 7035,
      "osh": 7036,
      "▁2nd": 7037,
      "▁$5": 7038,
      "shore": 7039,
      "▁management,": 7040,
      "ependence": 7041,
      "▁Rom": 7042,
      "▁promoting": 7043,
      "▁31": 7044,
      "▁gar": 7045,
      "▁theory": 7046,
      "fort": 7047,
      "▁spring": 7048,
      "▁Kat": 7049,
      "▁2010,": 7050,
      "▁Early": 7051,
      "▁Dar": 7052,
      "▁Foot": 7053,
      "▁Trib": 7054,
      "▁status": 7055,
      "-ac": 7056,
      "▁awareness": 7057,
      "ng": 7058,
      "▁Point": 7059,
      "used": 7060,
      "▁beautiful": 7061,
      "▁rates": 7062,
      "▁associate": 7063,
      "eland": 7064,
      "▁Fle": 7065,
      "\nCS": 7066,
      "▁illust": 7067,
      "▁page": 7068,
      "ora": 7069,
      "▁programs,": 7070,
      "imin": 7071,
      "illa": 7072,
      "list": 7073,
      "▁starred": 7074,
      "▁engagement": 7075,
      "▁sever": 7076,
      "85": 7077,
      "▁trust": 7078,
      "▁Gulf": 7079,
      "▁Thurs": 7080,
      "▁Brad": 7081,
      "-day": 7082,
      "▁entered": 7083,
      "▁Operations": 7084,
      "▁vess": 7085,
      "-and": 7086,
      "▁legendary": 7087,
      "▁God": 7088,
      ".org/": 7089,
      "eas": 7090,
      "▁America.": 7091,
      "▁solid": 7092,
      "▁battle": 7093,
      "▁Station": 7094,
      "▁evidence": 7095,
      "▁requirements": 7096,
      "▁Back": 7097,
      "▁settlement": 7098,
      "▁distinguished": 7099,
      "▁pain": 7100,
      "-I": 7101,
      "▁pen": 7102,
      "▁Pass": 7103,
      "ester": 7104,
      "▁gun": 7105,
      "▁celebration": 7106,
      "▁Portug": 7107,
      "ers’": 7108,
      "▁said.": 7109,
      "umin": 7110,
      "avior": 7111,
      "▁running": 7112,
      "▁wood": 7113,
      "▁mechanism": 7114,
      "▁abs": 7115,
      "▁Studios": 7116,
      "▁Call": 7117,
      "▁Future": 7118,
      "▁memory": 7119,
      "▁psych": 7120,
      "▁identify": 7121,
      "onder": 7122,
      "reach": 7123,
      "▁internet": 7124,
      "ow,": 7125,
      "ider": 7126,
      ":30": 7127,
      "pre": 7128,
      "▁killed": 7129,
      "▁vo": 7130,
      "▁positions": 7131,
      "▁maintain": 7132,
      "▁Advanced": 7133,
      "-5": 7134,
      "▁Brig": 7135,
      "▁described": 7136,
      "osen": 7137,
      "▁Omaha": 7138,
      "▁Jean": 7139,
      ".\nAd": 7140,
      "▁Olympic": 7141,
      "\nAbout": 7142,
      "ad,": 7143,
      "▁discipl": 7144,
      "▁students,": 7145,
      "unction": 7146,
      "▁CH": 7147,
      "▁experiences": 7148,
      "ators,": 7149,
      "▁Who": 7150,
      "▁greatest": 7151,
      "i’s": 7152,
      "▁Soviet": 7153,
      "▁ow": 7154,
      "ichael": 7155,
      "▁legislation": 7156,
      "ESS": 7157,
      "▁Harris": 7158,
      "▁stations": 7159,
      "▁coverage": 7160,
      "▁check": 7161,
      "ources,": 7162,
      "▁boost": 7163,
      "▁Doc": 7164,
      "▁Toronto": 7165,
      "▁occur": 7166,
      "▁Belg": 7167,
      "▁alternative": 7168,
      "▁Tues": 7169,
      "6)": 7170,
      "▁Common": 7171,
      "flix": 7172,
      "▁thought": 7173,
      "ogen": 7174,
      "▁secure": 7175,
      "DAY": 7176,
      "▁Born": 7177,
      "▁Although": 7178,
      "▁volunte": 7179,
      "antry": 7180,
      "▁scheduled": 7181,
      "▁Missouri": 7182,
      "oral": 7183,
      "▁rise": 7184,
      "▁sequ": 7185,
      "▁kil": 7186,
      "CL": 7187,
      "▁flex": 7188,
      "ures.": 7189,
      "istical": 7190,
      "▁Davis": 7191,
      "▁commissioned": 7192,
      "▁Sustain": 7193,
      "▁direction": 7194,
      "▁liv": 7195,
      "▁opera": 7196,
      "▁Nob": 7197,
      "▁Caribbean": 7198,
      "▁impress": 7199,
      "uan": 7200,
      "▁larger": 7201,
      "▁Front": 7202,
      "unning": 7203,
      "▁Key": 7204,
      "▁select": 7205,
      "▁5,": 7206,
      "▁Elizabeth": 7207,
      "sk": 7208,
      "▁price": 7209,
      "▁(the": 7210,
      "▁street": 7211,
      ".\nAt": 7212,
      "▁premiered": 7213,
      "▁Excellence": 7214,
      "opher": 7215,
      "-Ch": 7216,
      "atively": 7217,
      "▁List": 7218,
      "▁2001": 7219,
      "▁holid": 7220,
      "ocra": 7221,
      "/S": 7222,
      "itts": 7223,
      "▁\"A": 7224,
      "▁image": 7225,
      "▁Minnes": 7226,
      "esign": 7227,
      "▁Dram": 7228,
      "P,": 7229,
      "aci": 7230,
      "▁$4": 7231,
      "ATION": 7232,
      "▁“R": 7233,
      "▁Vi": 7234,
      "▁wealth": 7235,
      "s.com": 7236,
      "▁Bah": 7237,
      "▁Produc": 7238,
      "▁Nick": 7239,
      "▁Transportation": 7240,
      "▁shown": 7241,
      "s.\nM": 7242,
      "▁area.": 7243,
      "ruit": 7244,
      "▁Emer": 7245,
      "▁Lawrence": 7246,
      "▁homes": 7247,
      "▁Kel": 7248,
      "ipped": 7249,
      "▁appoint": 7250,
      "▁surrounding": 7251,
      "\nPh": 7252,
      "▁fleet": 7253,
      "▁Staff": 7254,
      "rugg": 7255,
      "pm": 7256,
      "F)": 7257,
      "▁regions": 7258,
      "-foot": 7259,
      "itarian": 7260,
      "▁it’s": 7261,
      "asket": 7262,
      "▁project,": 7263,
      "▁Nap": 7264,
      "▁fan": 7265,
      "▁invent": 7266,
      "est,": 7267,
      "▁Exper": 7268,
      "▁financing": 7269,
      "▁achieved": 7270,
      "▁tourist": 7271,
      "idents": 7272,
      "-th": 7273,
      "▁experim": 7274,
      "PT": 7275,
      "orter": 7276,
      "▁Chen": 7277,
      "rade": 7278,
      "▁India,": 7279,
      "▁section": 7280,
      "rie": 7281,
      "ulner": 7282,
      "ents,": 7283,
      "CM": 7284,
      "amental": 7285,
      "▁sale": 7286,
      "▁vital": 7287,
      "▁celebrate": 7288,
      "etown": 7289,
      "▁delivered": 7290,
      "▁religious": 7291,
      "ih": 7292,
      "▁hour": 7293,
      "▁country.": 7294,
      "▁Ca": 7295,
      "7)": 7296,
      "▁canc": 7297,
      "▁Prem": 7298,
      "▁Fall": 7299,
      "ity.": 7300,
      "umber": 7301,
      "▁confirm": 7302,
      "▁Resources": 7303,
      "RC": 7304,
      "▁govern": 7305,
      "▁experienced": 7306,
      "▁Jam": 7307,
      "▁speak": 7308,
      "▁Among": 7309,
      "▁Democratic": 7310,
      "▁45": 7311,
      "▁non-profit": 7312,
      "▁covers": 7313,
      "▁6,": 7314,
      "▁Nic": 7315,
      "▁topics": 7316,
      "▁Mission": 7317,
      "arry": 7318,
      "▁engaged": 7319,
      "gu": 7320,
      "lead": 7321,
      "▁got": 7322,
      "▁Ontar": 7323,
      "▁metal": 7324,
      "imes": 7325,
      "▁strategies": 7326,
      "▁Microsoft": 7327,
      "▁Veg": 7328,
      "y’s": 7329,
      "▁9,": 7330,
      "▁186": 7331,
      "▁Bol": 7332,
      "▁substant": 7333,
      "▁ask": 7334,
      "▁Tal": 7335,
      "▁reduction": 7336,
      "▁max": 7337,
      "▁Standard": 7338,
      "▁Publ": 7339,
      "▁involving": 7340,
      "▁Know": 7341,
      "▁Hon": 7342,
      "▁literature": 7343,
      "▁Hay": 7344,
      "▁nut": 7345,
      "▁Tem": 7346,
      "▁cop": 7347,
      "-known": 7348,
      "▁bio": 7349,
      "▁tech": 7350,
      "▁visitors": 7351,
      "▁emergency": 7352,
      "bi": 7353,
      "▁rare": 7354,
      "▁brief": 7355,
      "▁told": 7356,
      "▁Ec": 7357,
      "▁poor": 7358,
      "▁Non": 7359,
      "▁Music,": 7360,
      "met": 7361,
      "arant": 7362,
      "▁Maryland": 7363,
      "▁recordings": 7364,
      "▁AD": 7365,
      "▁concerts": 7366,
      ".\nAccording": 7367,
      "▁contribution": 7368,
      "▁lost": 7369,
      "▁Lect": 7370,
      "-level": 7371,
      "ia’s": 7372,
      "▁Manhatt": 7373,
      "▁properties": 7374,
      "▁difficult": 7375,
      "dule": 7376,
      "oven": 7377,
      "4)": 7378,
      "▁saw": 7379,
      "▁habit": 7380,
      "▁suppl": 7381,
      ".5": 7382,
      "▁country,": 7383,
      "▁Les": 7384,
      "▁AND": 7385,
      "▁Ireland": 7386,
      "▁managing": 7387,
      "▁subsidiary": 7388,
      "iec": 7389,
      "▁cited": 7390,
      "▁double": 7391,
      "▁AW": 7392,
      "▁2002": 7393,
      "▁foundation": 7394,
      "▁spread": 7395,
      "▁store": 7396,
      "▁eventually": 7397,
      "revious": 7398,
      "▁interested": 7399,
      "▁techniques": 7400,
      "▁non-": 7401,
      "rel": 7402,
      "▁insurance": 7403,
      "▁implementation": 7404,
      "▁Wiscons": 7405,
      "▁transfer": 7406,
      "▁Salv": 7407,
      "▁LA": 7408,
      "urric": 7409,
      "▁telecommun": 7410,
      "▁Hawai": 7411,
      "ulated": 7412,
      "FC": 7413,
      "▁extrem": 7414,
      "▁Protection": 7415,
      "▁Bio": 7416,
      "▁changed": 7417,
      "▁Marsh": 7418,
      "▁Limited": 7419,
      "▁memor": 7420,
      "acts": 7421,
      "▁Donald": 7422,
      "▁dynamic": 7423,
      "▁resil": 7424,
      "▁roll": 7425,
      "▁Wednes": 7426,
      "▁8,": 7427,
      "ashion": 7428,
      "▁Farm": 7429,
      "▁that,": 7430,
      "ormal": 7431,
      "▁Mu": 7432,
      "▁Photo": 7433,
      "▁datab": 7434,
      "in.": 7435,
      "▁charact": 7436,
      "▁Supreme": 7437,
      "-K": 7438,
      "▁Son": 7439,
      "▁“G": 7440,
      "▁year’s": 7441,
      "▁resulting": 7442,
      "▁vot": 7443,
      "▁spirit": 7444,
      "phone": 7445,
      "▁middle": 7446,
      "ruption": 7447,
      "▁career,": 7448,
      "▁houses": 7449,
      "▁system.": 7450,
      "▁composition": 7451,
      "▁Province": 7452,
      "▁bound": 7453,
      "▁Name": 7454,
      "ulate": 7455,
      "▁7,": 7456,
      "▁Switzer": 7457,
      "-owned": 7458,
      "▁phase": 7459,
      "▁Championship": 7460,
      "▁region.": 7461,
      "SP": 7462,
      "▁believ": 7463,
      "▁Bre": 7464,
      "etary": 7465,
      "roduction": 7466,
      "▁stop": 7467,
      "▁driving": 7468,
      "imb": 7469,
      "oming": 7470,
      "▁Prom": 7471,
      "ila": 7472,
      "▁Video": 7473,
      "▁seat": 7474,
      "▁Grow": 7475,
      "▁reality": 7476,
      "pret": 7477,
      "organ": 7478,
      "▁Marc": 7479,
      "ization,": 7480,
      "▁understand": 7481,
      ".\nWith": 7482,
      "▁receiving": 7483,
      "▁engineering,": 7484,
      "▁Cop": 7485,
      "▁Today,": 7486,
      "▁Revolution": 7487,
      "MT": 7488,
      "▁Outstanding": 7489,
      "-the-": 7490,
      "▁Exchange": 7491,
      "▁designated": 7492,
      "▁freedom": 7493,
      "▁Final": 7494,
      "▁association": 7495,
      "▁heat": 7496,
      "posium": 7497,
      "▁\"S": 7498,
      "26": 7499,
      "--": 7500,
      "ues.": 7501,
      "ise,": 7502,
      "▁bomb": 7503,
      "▁IC": 7504,
      "▁factors": 7505,
      "▁3rd": 7506,
      "▁wildlife": 7507,
      "▁resort": 7508,
      "▁USD": 7509,
      "▁affect": 7510,
      "▁Lind": 7511,
      "▁crew": 7512,
      "ource:": 7513,
      "▁Learning": 7514,
      "▁liber": 7515,
      "▁Three": 7516,
      "▁feed": 7517,
      "▁countries.": 7518,
      "▁publish": 7519,
      "▁experts": 7520,
      "▁truck": 7521,
      "▁lot": 7522,
      "▁2008,": 7523,
      "▁Lie": 7524,
      "ercise": 7525,
      "▁theat": 7526,
      "▁services.": 7527,
      "▁remained": 7528,
      "ns": 7529,
      "89": 7530,
      "ages,": 7531,
      "raction": 7532,
      "▁Relations": 7533,
      "▁Tel": 7534,
      "TE": 7535,
      "▁Drug": 7536,
      "▁vib": 7537,
      "▁Iow": 7538,
      "arc": 7539,
      "▁rising": 7540,
      "▁intern": 7541,
      "▁resulted": 7542,
      "▁earth": 7543,
      "ilateral": 7544,
      "▁stated": 7545,
      "ant,": 7546,
      "▁merg": 7547,
      "▁Million": 7548,
      "▁recre": 7549,
      "▁Leadership": 7550,
      "roph": 7551,
      "▁prec": 7552,
      "ciety,": 7553,
      "▁Ox": 7554,
      "▁processes": 7555,
      "▁Gallery": 7556,
      "-year-old": 7557,
      "▁friends": 7558,
      "▁products,": 7559,
      "▁anticip": 7560,
      "▁element": 7561,
      "▁elements": 7562,
      "▁massive": 7563,
      "▁SP": 7564,
      "▁floor": 7565,
      "▁Album": 7566,
      "▁perspect": 7567,
      "▁components": 7568,
      "▁AL": 7569,
      "▁closely": 7570,
      "▁starting": 7571,
      "▁Square": 7572,
      "▁(K": 7573,
      "▁festivals": 7574,
      "▁bur": 7575,
      "▁orchestra": 7576,
      "▁time.": 7577,
      "▁startup": 7578,
      "oration": 7579,
      "anthrop": 7580,
      "▁Cas": 7581,
      "stream": 7582,
      "▁Ta": 7583,
      "▁replace": 7584,
      "ishes": 7585,
      "▁expect": 7586,
      "▁medium": 7587,
      "▁governments": 7588,
      "▁analy": 7589,
      "▁ceremony": 7590,
      "▁defend": 7591,
      "▁sustainability": 7592,
      "▁chosen": 7593,
      "▁flag": 7594,
      "▁constitut": 7595,
      "▁pianist": 7596,
      "▁countries,": 7597,
      "▁going": 7598,
      "▁Youth": 7599,
      "tech": 7600,
      "▁Wilson": 7601,
      "▁McG": 7602,
      "ventional": 7603,
      "▁Dallas": 7604,
      "ROM": 7605,
      "▁gained": 7606,
      "&T": 7607,
      "▁Dub": 7608,
      "▁Commerce": 7609,
      "▁Shan": 7610,
      "icles,": 7611,
      "▁co-founder": 7612,
      "▁Expl": 7613,
      "▁Political": 7614,
      "ellent": 7615,
      "▁IP": 7616,
      "▁remark": 7617,
      "▁Forum": 7618,
      "▁frequently": 7619,
      "▁Cultural": 7620,
      "all,": 7621,
      "illeg": 7622,
      "▁pet": 7623,
      "▁N.": 7624,
      "▁Ent": 7625,
      "▁maintenance": 7626,
      "▁10,": 7627,
      "▁surve": 7628,
      "▁11,": 7629,
      "▁regarding": 7630,
      "▁Ash": 7631,
      "down": 7632,
      "▁studying": 7633,
      "▁later,": 7634,
      "▁crime": 7635,
      "▁(18": 7636,
      "▁Region": 7637,
      "inson": 7638,
      "▁Native": 7639,
      "▁Third": 7640,
      "▁measures": 7641,
      "aine": 7642,
      "cript": 7643,
      "▁nan": 7644,
      "▁Ak": 7645,
      "over,": 7646,
      "▁Add": 7647,
      "▁bird": 7648,
      "▁Creek": 7649,
      "▁Hal": 7650,
      "▁Civ": 7651,
      "▁Freedom": 7652,
      "▁191": 7653,
      "s.\nT": 7654,
      "▁Jenn": 7655,
      "orders": 7656,
      "▁either": 7657,
      "▁Awards,": 7658,
      "enh": 7659,
      "▁little": 7660,
      "▁border": 7661,
      "▁Metropolitan": 7662,
      "▁circuit": 7663,
      "▁franch": 7664,
      "▁Japan,": 7665,
      "▁Alaska": 7666,
      "▁Moz": 7667,
      "apeut": 7668,
      "▁Bowl": 7669,
      "▁2009,": 7670,
      "▁Ark": 7671,
      "▁negoti": 7672,
      "NG": 7673,
      "▁honors": 7674,
      "▁Faculty": 7675,
      "▁Each": 7676,
      "▁Jordan": 7677,
      "▁Sus": 7678,
      "▁Rick": 7679,
      "▁Gre": 7680,
      "▁ox": 7681,
      "▁Cart": 7682,
      "rav": 7683,
      "iling": 7684,
      "▁fair": 7685,
      "ali": 7686,
      "▁Tw": 7687,
      "▁Ul": 7688,
      "\".": 7689,
      "▁Electrical": 7690,
      "▁names": 7691,
      "anna": 7692,
      "argest": 7693,
      "▁excited": 7694,
      "aith": 7695,
      "▁Bachelor": 7696,
      "▁planned": 7697,
      "▁transmission": 7698,
      "▁Consumer": 7699,
      "▁weapons": 7700,
      "▁Imm": 7701,
      "▁fundamental": 7702,
      "▁Clevel": 7703,
      "▁Domin": 7704,
      "▁highlights": 7705,
      "iness": 7706,
      "ments,": 7707,
      "embers": 7708,
      "▁troops": 7709,
      "▁US$": 7710,
      "▁more.": 7711,
      "▁vulner": 7712,
      "▁Culture": 7713,
      "▁bass": 7714,
      "stone": 7715,
      "les.": 7716,
      "▁achievement": 7717,
      "▁sculpt": 7718,
      "can": 7719,
      "▁integration": 7720,
      "▁Jess": 7721,
      "agen": 7722,
      "▁ranging": 7723,
      "icut": 7724,
      "▁medicine": 7725,
      "78": 7726,
      "▁exceptional": 7727,
      "▁Biden": 7728,
      "AV": 7729,
      "▁400": 7730,
      "▁distinct": 7731,
      "enz": 7732,
      "▁Heart": 7733,
      "▁destin": 7734,
      "TO": 7735,
      "▁covered": 7736,
      "▁abroad": 7737,
      "▁DO": 7738,
      "▁applied": 7739,
      "▁Africa,": 7740,
      "▁ap": 7741,
      "▁RE": 7742,
      "▁Catholic": 7743,
      "▁soldiers": 7744,
      "▁looking": 7745,
      "▁Gh": 7746,
      "asketball": 7747,
      "▁substantial": 7748,
      "erkeley": 7749,
      "rix": 7750,
      "▁Link": 7751,
      "▁Kentuck": 7752,
      "pan": 7753,
      "▁mixed": 7754,
      "urities": 7755,
      "▁loan": 7756,
      "itus": 7757,
      "▁might": 7758,
      "▁alle": 7759,
      "odies": 7760,
      "▁Qual": 7761,
      "▁75": 7762,
      "▁Soft": 7763,
      "▁Clean": 7764,
      "▁matter": 7765,
      "▁Tennessee": 7766,
      "▁allowing": 7767,
      "▁Rest": 7768,
      "▁Greg": 7769,
      "-power": 7770,
      ":\n": 7771,
      "▁“E": 7772,
      "OUR": 7773,
      "▁Kir": 7774,
      "▁contribute": 7775,
      "asts": 7776,
      "anguage": 7777,
      "▁reserv": 7778,
      "▁Prof": 7779,
      "ression": 7780,
      "▁true": 7781,
      "▁Sunday": 7782,
      "oz": 7783,
      "acing": 7784,
      "iat": 7785,
      "rition": 7786,
      "▁energy,": 7787,
      "▁Chall": 7788,
      "gories": 7789,
      "▁scene": 7790,
      "iate": 7791,
      "’ve": 7792,
      "▁Engineering,": 7793,
      "otic": 7794,
      "▁Autom": 7795,
      "▁array": 7796,
      "▁Bad": 7797,
      "▁grid": 7798,
      "▁Friday": 7799,
      "eneration": 7800,
      "stan": 7801,
      "▁Hug": 7802,
      "▁Mun": 7803,
      "▁collaborative": 7804,
      "▁vacc": 7805,
      "▁appearances": 7806,
      "▁Cat": 7807,
      "▁lines": 7808,
      "▁Dubl": 7809,
      "olve": 7810,
      "s/": 7811,
      "edge": 7812,
      "ais": 7813,
      "ollows": 7814,
      "▁Partners": 7815,
      "▁destination": 7816,
      "esy": 7817,
      "▁fix": 7818,
      "▁purpose": 7819,
      "NC": 7820,
      "▁illeg": 7821,
      "elle": 7822,
      "▁Images": 7823,
      "▁Today": 7824,
      "▁Career": 7825,
      "▁Industrial": 7826,
      "ney,": 7827,
      "-Mobile": 7828,
      "ATO": 7829,
      "▁Baltim": 7830,
      "▁Investig": 7831,
      "▁projects,": 7832,
      "▁allowed": 7833,
      "▁cho": 7834,
      "▁Place": 7835,
      "▁Garden": 7836,
      "76": 7837,
      "▁outdoor": 7838,
      "▁crisis": 7839,
      "▁AF": 7840,
      "riers": 7841,
      "itude": 7842,
      "issance": 7843,
      "▁recommend": 7844,
      "ela": 7845,
      "▁2007,": 7846,
      "▁craft": 7847,
      "▁19th": 7848,
      "aven": 7849,
      "▁$10": 7850,
      "▁Bul": 7851,
      "▁Ther": 7852,
      "▁library": 7853,
      "▁reduced": 7854,
      "clusion": 7855,
      "MC": 7856,
      "▁Cinem": 7857,
      "50,000": 7858,
      "▁Brid": 7859,
      "eld": 7860,
      "https://www.": 7861,
      "▁Compos": 7862,
      "▁Watch": 7863,
      "▁Zh": 7864,
      "▁Beij": 7865,
      "▁Hotel": 7866,
      "▁partnerships": 7867,
      "▁Netflix": 7868,
      "▁technology.": 7869,
      "ography,": 7870,
      "▁Advisory": 7871,
      "▁bre": 7872,
      "▁Dam": 7873,
      "▁raise": 7874,
      "▁depart": 7875,
      "▁neuro": 7876,
      "▁increasingly": 7877,
      "▁Theatre,": 7878,
      "ribute": 7879,
      "▁Pers": 7880,
      "▁Original": 7881,
      "▁identified": 7882,
      "▁entrepreneur": 7883,
      "rell": 7884,
      "▁diseases": 7885,
      "▁hop": 7886,
      "95": 7887,
      ".\nY": 7888,
      "etch": 7889,
      "▁Malays": 7890,
      "▁deployed": 7891,
      "▁documents": 7892,
      "▁enterpris": 7893,
      "bersecurity": 7894,
      "▁Gr": 7895,
      "▁Paper": 7896,
      "▁exclusive": 7897,
      "▁cutting": 7898,
      "ht": 7899,
      "mir": 7900,
      "▁ly": 7901,
      "liam": 7902,
      "fully": 7903,
      "▁protected": 7904,
      "▁Dave": 7905,
      "omine": 7906,
      "▁composed": 7907,
      "▁acid": 7908,
      "▁Roc": 7909,
      "▁productions": 7910,
      "ona,": 7911,
      "mann": 7912,
      "▁whether": 7913,
      "ican": 7914,
      "▁destroy": 7915,
      "▁Ref": 7916,
      "▁setting": 7917,
      "onna": 7918,
      "▁conducting": 7919,
      "burg,": 7920,
      "▁focusing": 7921,
      "▁publications": 7922,
      "▁urg": 7923,
      "▁client": 7924,
      "▁Christmas": 7925,
      "▁It’s": 7926,
      "IST": 7927,
      "▁Rose": 7928,
      "▁(f": 7929,
      "▁mit": 7930,
      "▁rein": 7931,
      ".\nDuring": 7932,
      "▁views": 7933,
      "ynd": 7934,
      "▁Mig": 7935,
      "ysis": 7936,
      "▁structures": 7937,
      "▁mining": 7938,
      "oms": 7939,
      "ingham": 7940,
      "▁separate": 7941,
      "▁river": 7942,
      "▁Product": 7943,
      "▁T.": 7944,
      "▁Northwest": 7945,
      "▁Cro": 7946,
      "▁Game": 7947,
      "▁protein": 7948,
      "▁Credit": 7949,
      "▁accomp": 7950,
      "▁Low": 7951,
      "▁critic": 7952,
      "\nWhat": 7953,
      "AY": 7954,
      "▁meaning": 7955,
      "estin": 7956,
      "▁Century": 7957,
      "real": 7958,
      "quadron": 7959,
      "▁>": 7960,
      "▁Lyn": 7961,
      "▁party": 7962,
      "▁Barcel": 7963,
      "▁follows": 7964,
      ".\nFrom": 7965,
      "▁extended": 7966,
      "h,": 7967,
      "abet": 7968,
      "▁region,": 7969,
      "▁Every": 7970,
      "▁refer": 7971,
      "▁Here": 7972,
      "▁mis": 7973,
      "▁paid": 7974,
      "▁hosts": 7975,
      "▁2005,": 7976,
      "▁places": 7977,
      ".\nTo": 7978,
      "▁committee": 7979,
      "▁reput": 7980,
      "▁Well": 7981,
      "▁folk": 7982,
      "▁strugg": 7983,
      "▁Scot": 7984,
      "I,": 7985,
      "▁\"B": 7986,
      "▁Study": 7987,
      "▁holiday": 7988,
      "▁Further": 7989,
      "▁safe": 7990,
      "amm": 7991,
      "▁Students": 7992,
      "▁goals": 7993,
      "▁letter": 7994,
      "odcast": 7995,
      "▁girl": 7996,
      "▁Opera,": 7997,
      "▁Ow": 7998,
      "▁employment": 7999,
      "▁forecast": 8000,
      "▁dead": 8001,
      "▁biom": 8002,
      "▁revolution": 8003,
      "▁Stone": 8004,
      "▁Bab": 8005,
      "100": 8006,
      "hol": 8007,
      "Qu": 8008,
      "EST": 8009,
      "▁violence": 8010,
      "▁Brian": 8011,
      "▁pollution": 8012,
      "-6": 8013,
      "▁connected": 8014,
      "-se": 8015,
      "azing": 8016,
      "M)": 8017,
      "▁eastern": 8018,
      "▁themsel": 8019,
      "▁recital": 8020,
      "▁Massachusetts": 8021,
      "▁headquartered": 8022,
      "-dr": 8023,
      "▁critically": 8024,
      "▁Duke": 8025,
      "▁ocean": 8026,
      "▁pover": 8027,
      "▁pra": 8028,
      "▁purchased": 8029,
      "▁Card": 8030,
      "▁Obama": 8031,
      "▁necessary": 8032,
      "▁risks": 8033,
      "▁images": 8034,
      "-a": 8035,
      "86": 8036,
      "▁Before": 8037,
      "ery,": 8038,
      "▁ON": 8039,
      "▁professionals": 8040,
      "sen": 8041,
      "eting": 8042,
      "▁collaborated": 8043,
      "▁dollars": 8044,
      "▁selection": 8045,
      "▁corn": 8046,
      "▁ships": 8047,
      "-de": 8048,
      "▁1960": 8049,
      "▁business,": 8050,
      "▁p.m.": 8051,
      "▁vast": 8052,
      "▁15,": 8053,
      "▁athlet": 8054,
      "acific": 8055,
      "ensus": 8056,
      "▁fort": 8057,
      "hester": 8058,
      "▁stay": 8059,
      "▁Detroit": 8060,
      "ez": 8061,
      "▁observ": 8062,
      "▁Nature": 8063,
      "▁Taiwan": 8064,
      "▁emission": 8065,
      "▁Contemporary": 8066,
      "▁Dak": 8067,
      "\\\\\\\\\\\\\\\\\\\\\\\\\\\\\\\\": 8068,
      "▁whom": 8069,
      "▁trib": 8070,
      "▁workforce": 8071,
      "▁Access": 8072,
      "inity": 8073,
      "▁Riv": 8074,
      "osing": 8075,
      "olly": 8076,
      "perform": 8077,
      "▁sectors": 8078,
      "▁mostly": 8079,
      "▁elimin": 8080,
      "onomous": 8081,
      "ang,": 8082,
      "▁Hart": 8083,
      "▁transaction": 8084,
      "▁LLC": 8085,
      "as.": 8086,
      "HS": 8087,
      "disciplinary": 8088,
      "▁multi": 8089,
      "8)": 8090,
      "▁Nation": 8091,
      "apol": 8092,
      "▁music.": 8093,
      "\nEx": 8094,
      "ré": 8095,
      "▁authorities": 8096,
      "33": 8097,
      "▁Agre": 8098,
      "▁Authority": 8099,
      "▁photo": 8100,
      "▁Alexander": 8101,
      "▁combination": 8102,
      "▁connection": 8103,
      "▁Morgan": 8104,
      "▁Pakistan": 8105,
      "▁Infrastructure": 8106,
      "iscal": 8107,
      "-long": 8108,
      "▁consumers": 8109,
      "▁Next": 8110,
      "▁17,": 8111,
      "lamm": 8112,
      "▁requires": 8113,
      "s.\"": 8114,
      "▁Austin": 8115,
      "▁prosecut": 8116,
      "AA": 8117,
      "elt": 8118,
      "▁Vin": 8119,
      "▁marine": 8120,
      "▁weather": 8121,
      "▁map": 8122,
      "▁Log": 8123,
      "▁Bruce": 8124,
      "▁atmosph": 8125,
      "▁Bor": 8126,
      "▁elev": 8127,
      "▁Cre": 8128,
      "ocation": 8129,
      "▁Arizona": 8130,
      "▁Emerg": 8131,
      "▁Change": 8132,
      "iveness": 8133,
      "▁Nelson": 8134,
      "/or": 8135,
      "▁Kevin": 8136,
      "▁PM": 8137,
      "▁Hard": 8138,
      "▁giving": 8139,
      "▁adopted": 8140,
      "bell": 8141,
      "ropical": 8142,
      "▁coastal": 8143,
      "▁Combat": 8144,
      "▁advent": 8145,
      "aun": 8146,
      "equ": 8147,
      "▁Som": 8148,
      "▁huge": 8149,
      "▁GR": 8150,
      "▁statements": 8151,
      "gers": 8152,
      "va": 8153,
      "site": 8154,
      "s.\nF": 8155,
      "▁internal": 8156,
      "AND": 8157,
      "▁emer": 8158,
      "▁electro": 8159,
      "▁Convention": 8160,
      "thes": 8161,
      "▁confer": 8162,
      "▁pursue": 8163,
      "▁\"C": 8164,
      "▁trained": 8165,
      "▁engineer": 8166,
      "▁Tick": 8167,
      "▁remote": 8168,
      "▁closed": 8169,
      "osure": 8170,
      "▁mainly": 8171,
      "▁Mexico,": 8172,
      "▁nomination": 8173,
      "▁Editor": 8174,
      "▁details": 8175,
      "ablished": 8176,
      "▁participation": 8177,
      "▁Warner": 8178,
      "▁runs": 8179,
      "▁intellectual": 8180,
      "▁32": 8181,
      "aron": 8182,
      "▁basis": 8183,
      "ractor": 8184,
      "chnology": 8185,
      "▁Sn": 8186,
      "▁pioneering": 8187,
      "▁Jay": 8188,
      "teen": 8189,
      "urd": 8190,
      "▁demonstrated": 8191,
      "▁Connecticut": 8192,
      "▁•": 8193,
      "▁whole": 8194,
      "oes": 8195,
      "▁area,": 8196,
      "▁skill": 8197,
      "lin,": 8198,
      "-sh": 8199,
      "EG": 8200,
      "state": 8201,
      "▁venues": 8202,
      "▁Dead": 8203,
      "77": 8204,
      "▁ABC": 8205,
      "▁aspects": 8206,
      "▁survey": 8207,
      "s.\nP": 8208,
      "▁Institute,": 8209,
      "▁mountain": 8210,
      "-V": 8211,
      "▁Brooklyn": 8212,
      "▁learning,": 8213,
      "▁Veter": 8214,
      "bed": 8215,
      "▁influential": 8216,
      "):": 8217,
      "▁audio": 8218,
      "elli": 8219,
      "▁church": 8220,
      "borne": 8221,
      "edical": 8222,
      "▁Season": 8223,
      "▁bond": 8224,
      "▁Jer": 8225,
      "s.\nB": 8226,
      "▁investigation": 8227,
      "set": 8228,
      "▁classes": 8229,
      "▁household": 8230,
      "▁actions": 8231,
      "▁presents": 8232,
      "▁1999": 8233,
      "▁las": 8234,
      "▁3.": 8235,
      "agon": 8236,
      "log": 8237,
      "▁Sydney": 8238,
      "▁monitoring": 8239,
      "▁exciting": 8240,
      "berg,": 8241,
      "▁Sem": 8242,
      "▁mor": 8243,
      "▁permanent": 8244,
      "▁coach": 8245,
      "arbon": 8246,
      "▁T-Mobile": 8247,
      "▁Association,": 8248,
      "▁Colomb": 8249,
      "▁Dise": 8250,
      "lem": 8251,
      "▁Alumni": 8252,
      "cher": 8253,
      "99": 8254,
      "awn": 8255,
      "▁Person": 8256,
      "▁province": 8257,
      "▁som": 8258,
      "ellow": 8259,
      "arl": 8260,
      "▁Technologies": 8261,
      "▁Pow": 8262,
      "isan": 8263,
      ".”\n“": 8264,
      "-of-the-": 8265,
      "lett": 8266,
      "▁Treat": 8267,
      "▁PR": 8268,
      "▁Howard": 8269,
      "▁rapidly": 8270,
      "▁Albert": 8271,
      "▁Mosc": 8272,
      "▁Australia,": 8273,
      "▁flu": 8274,
      "▁Obs": 8275,
      "▁cooper": 8276,
      "▁excellent": 8277,
      "▁Bush": 8278,
      "▁security,": 8279,
      "▁sought": 8280,
      "▁Jane": 8281,
      "▁landmark": 8282,
      "▁workshop": 8283,
      "▁induct": 8284,
      "s;": 8285,
      "iar": 8286,
      "ception": 8287,
      "▁brother": 8288,
      "/s": 8289,
      "▁movies": 8290,
      "bes": 8291,
      "▁nam": 8292,
      ".\n“We": 8293,
      "▁generally": 8294,
      "▁Batt": 8295,
      "▁den": 8296,
      "▁G.": 8297,
      "▁Rid": 8298,
      "▁Cancer": 8299,
      "▁Arts,": 8300,
      "▁participants": 8301,
      "▁entrepreneurs": 8302,
      "▁hydrogen": 8303,
      "▁consumption": 8304,
      "▁continuing": 8305,
      "▁impl": 8306,
      "▁Finance": 8307,
      "▁automotive": 8308,
      "ken": 8309,
      "▁proced": 8310,
      "▁shap": 8311,
      "▁FROM": 8312,
      "lack": 8313,
      "▁Bec": 8314,
      "▁Lif": 8315,
      "▁Wildlife": 8316,
      "▁mic": 8317,
      "▁Sold": 8318,
      "▁“N": 8319,
      "▁Utah": 8320,
      "▁warm": 8321,
      "▁12,": 8322,
      "▁decre": 8323,
      "erate": 8324,
      "▁relevant": 8325,
      "▁Both": 8326,
      "s.\nH": 8327,
      "▁enables": 8328,
      ".\nShe": 8329,
      "▁subsc": 8330,
      "▁conver": 8331,
      "▁events,": 8332,
      "ama,": 8333,
      "▁Alabama": 8334,
      "▁21st": 8335,
      "▁said,": 8336,
      "OP": 8337,
      "▁officers": 8338,
      "”)": 8339,
      "▁Mas": 8340,
      "▁Thail": 8341,
      "▁Performing": 8342,
      "▁and/or": 8343,
      "▁capable": 8344,
      "▁streaming": 8345,
      "▁pick": 8346,
      "E.": 8347,
      "▁diplom": 8348,
      "▁14,": 8349,
      "▁Integ": 8350,
      "commod": 8351,
      "▁Resp": 8352,
      "▁behavior": 8353,
      "▁Sky": 8354,
      "▁Mr": 8355,
      "▁director,": 8356,
      "ittsburgh": 8357,
      "▁Ir": 8358,
      "▁nationwide": 8359,
      "icians": 8360,
      "▁nations": 8361,
      "▁category": 8362,
      "▁attacks": 8363,
      "▁journey": 8364,
      "ailed": 8365,
      "▁Short": 8366,
      "▁16,": 8367,
      "▁33": 8368,
      "▁agriculture": 8369,
      "▁Cam": 8370,
      "more": 8371,
      "ordinary": 8372,
      "▁PC": 8373,
      "▁administrative": 8374,
      "▁greenhouse": 8375,
      "▁Football": 8376,
      "▁soloist": 8377,
      ".\nPro": 8378,
      "\nU.S.": 8379,
      "▁responsibility": 8380,
      "▁Moh": 8381,
      "▁1996": 8382,
      "▁hus": 8383,
      "\nSh": 8384,
      "▁Press,": 8385,
      "▁philosoph": 8386,
      "▁ensemble": 8387,
      "gar": 8388,
      "▁Gas": 8389,
      "▁(NY": 8390,
      "▁manage": 8391,
      "▁steel": 8392,
      "▁EV": 8393,
      "SC": 8394,
      "▁covering": 8395,
      "▁Italy,": 8396,
      "▁20,": 8397,
      "▁serious": 8398,
      "-DAY": 8399,
      "crete": 8400,
      "lock": 8401,
      "▁Costa": 8402,
      "▁cas": 8403,
      "▁conflict": 8404,
      "▁enabling": 8405,
      "uster": 8406,
      "▁21,": 8407,
      "▁encourage": 8408,
      "-of-the-art": 8409,
      "▁performs": 8410,
      "cycl": 8411,
      "▁Strategic": 8412,
      "▁Monte": 8413,
      "▁rule": 8414,
      "▁Oklahoma": 8415,
      "▁Senator": 8416,
      "\nJohn": 8417,
      "▁Atlanta": 8418,
      "▁Islamic": 8419,
      "UL": 8420,
      "iem": 8421,
      "evelop": 8422,
      "eneral": 8423,
      "▁Whit": 8424,
      "▁advisor:": 8425,
      "asion": 8426,
      "▁divid": 8427,
      "eta": 8428,
      "▁gath": 8429,
      "ERS": 8430,
      "▁Israeli": 8431,
      "▁inaugural": 8432,
      "▁Bridge": 8433,
      "erald": 8434,
      "▁component": 8435,
      "perto": 8436,
      "encies": 8437,
      "▁damage": 8438,
      "▁Pil": 8439,
      "PC": 8440,
      "▁century,": 8441,
      "eton": 8442,
      "▁Following": 8443,
      "▁Electronic": 8444,
      "▁Oregon": 8445,
      "\nHow": 8446,
      "▁Peters": 8447,
      "▁Gene": 8448,
      "▁cruise": 8449,
      "▁Material": 8450,
      "▁challenge": 8451,
      "▁Chicago,": 8452,
      "inger": 8453,
      "enna": 8454,
      "▁1,000": 8455,
      "sey": 8456,
      "ffick": 8457,
      "▁restrict": 8458,
      "▁segment": 8459,
      "▁mand": 8460,
      "▁Antonio": 8461,
      "▁example": 8462,
      "▁impacts": 8463,
      "▁Miami": 8464,
      "▁Ba": 8465,
      "▁producers": 8466,
      "▁user": 8467,
      "▁Mississippi": 8468,
      "▁produces": 8469,
      "▁Steven": 8470,
      "▁animated": 8471,
      "▁19,": 8472,
      "▁accomplish": 8473,
      "▁inside": 8474,
      "▁Cz": 8475,
      "▁WW": 8476,
      "▁Ext": 8477,
      "▁legacy": 8478,
      "▁pressure": 8479,
      "▁agreed": 8480,
      "It": 8481,
      "oen": 8482,
      "▁Summit": 8483,
      "iy": 8484,
      "▁Pap": 8485,
      "▁22,": 8486,
      "▁shot": 8487,
      "▁development.": 8488,
      "▁Literature": 8489,
      "▁things": 8490,
      "▁Sher": 8491,
      "▁Historical": 8492,
      "▁1998": 8493,
      "▁refuge": 8494,
      "hous": 8495,
      "▁Director,": 8496,
      "▁California.": 8497,
      "▁Scholars": 8498,
      "▁seeks": 8499,
      "27": 8500,
      "▁Matthew": 8501,
      "▁Cooper": 8502,
      "▁teachers": 8503,
      "▁Shangh": 8504,
      "eric": 8505,
      "▁production,": 8506,
      "BT": 8507,
      "inking": 8508,
      "rity": 8509,
      "inner": 8510,
      "▁D.C": 8511,
      "leep": 8512,
      "rait": 8513,
      "▁interpret": 8514,
      "s.\n“": 8515,
      "▁twenty": 8516,
      "▁Gab": 8517,
      "isk": 8518,
      "▁hope": 8519,
      "▁Nort": 8520,
      "▁advancing": 8521,
      "▁seeking": 8522,
      "iang": 8523,
      "▁platforms": 8524,
      "▁options": 8525,
      "Un": 8526,
      "▁Rang": 8527,
      "rations": 8528,
      "heastern": 8529,
      "▁30,": 8530,
      "▁obtained": 8531,
      "▁technological": 8532,
      "▁grown": 8533,
      "▁Years": 8534,
      "▁healthy": 8535,
      "▁Jacob": 8536,
      "▁Saturday": 8537,
      "▁Hun": 8538,
      "▁Laur": 8539,
      "▁Bloom": 8540,
      "▁“the": 8541,
      "▁Coal": 8542,
      "▁decided": 8543,
      "▁Multinational": 8544,
      "▁Kansas": 8545,
      "▁Deputy": 8546,
      "abul": 8547,
      "▁Walt": 8548,
      "irthplace": 8549,
      "▁hands": 8550,
      "ida": 8551,
      "▁renov": 8552,
      "▁Pay": 8553,
      "▁history.": 8554,
      "uten": 8555,
      "ething": 8556,
      "▁origin": 8557,
      "ennis": 8558,
      "▁behalf": 8559,
      "▁Texas,": 8560,
      "▁alumnus": 8561,
      "29": 8562,
      "▁option": 8563,
      "▁Mess": 8564,
      "▁enough": 8565,
      "▁spending": 8566,
      "▁specifically": 8567,
      "▁county": 8568,
      "chen": 8569,
      "▁perfect": 8570,
      "▁valu": 8571,
      "aura": 8572,
      "▁Full": 8573,
      "▁sharing": 8574,
      "OD": 8575,
      "-century": 8576,
      "▁Empire": 8577,
      "▁Simon": 8578,
      "▁susp": 8579,
      "▁Silver": 8580,
      "▁Capt": 8581,
      "▁feel": 8582,
      "osted": 8583,
      "▁debt": 8584,
      "▁Bach": 8585,
      "▁Assembly": 8586,
      "▁Cert": 8587,
      "▁landscape": 8588,
      "▁recipients": 8589,
      "▁Manager": 8590,
      "▁easy": 8591,
      "ardo": 8592,
      "▁companies.": 8593,
      "▁incred": 8594,
      "▁exercise": 8595,
      "▁Bene": 8596,
      "▁Hung": 8597,
      ".\nHis": 8598,
      "▁community.": 8599,
      "▁cash": 8600,
      "▁carried": 8601,
      "▁dies": 8602,
      "▁sun": 8603,
      "fare": 8604,
      "agg": 8605,
      "▁proceed": 8606,
      "liament": 8607,
      "▁sav": 8608,
      "▁missions": 8609,
      "▁ir": 8610,
      "otte": 8611,
      "▁affected": 8612,
      "▁mental": 8613,
      "▁sell": 8614,
      "DP": 8615,
      "▁tun": 8616,
      "through": 8617,
      "▁weeks": 8618,
      "▁longer": 8619,
      "▁13,": 8620,
      "▁hybrid": 8621,
      "▁retired": 8622,
      "▁Berg": 8623,
      "ierra": 8624,
      "▁state-of-the-art": 8625,
      "DF": 8626,
      "▁Paris,": 8627,
      "B,": 8628,
      "ances,": 8629,
      "▁Professional": 8630,
      "▁McK": 8631,
      "▁2017.": 8632,
      "▁referred": 8633,
      "elines": 8634,
      "▁Hand": 8635,
      "▁Quartet": 8636,
      "ultural": 8637,
      "\nNational": 8638,
      "ago": 8639,
      "▁Biography": 8640,
      "▁piece": 8641,
      "▁publication": 8642,
      "iac": 8643,
      "▁conven": 8644,
      "oyd": 8645,
      "▁Josh": 8646,
      "-200": 8647,
      "▁Marg": 8648,
      "▁charge": 8649,
      "▁placed": 8650,
      "uits": 8651,
      "▁fifth": 8652,
      "▁context": 8653,
      "▁Chang": 8654,
      "▁Anthony": 8655,
      "rator": 8656,
      "estone": 8657,
      "▁calls": 8658,
      "▁Street,": 8659,
      "ics.": 8660,
      "▁Rio": 8661,
      "▁parents": 8662,
      "▁filed": 8663,
      "▁gard": 8664,
      "▁CAR": 8665,
      "▁$6": 8666,
      "▁China’s": 8667,
      "▁Ru": 8668,
      "▁Dor": 8669,
      "▁health,": 8670,
      ")\nA": 8671,
      "▁banking": 8672,
      "▁Ontario": 8673,
      "val": 8674,
      "▁Broadcast": 8675,
      "▁Pas": 8676,
      "▁program.": 8677,
      "▁Beat": 8678,
      "▁Clinton": 8679,
      "▁Safety": 8680,
      "▁cod": 8681,
      "▁receives": 8682,
      "▁reporting": 8683,
      "▁Billboard": 8684,
      "ounds": 8685,
      "▁Aviation": 8686,
      "/G": 8687,
      "inar": 8688,
      "▁Harry": 8689,
      "▁participating": 8690,
      "PL": 8691,
      "▁Fellows": 8692,
      "▁architectural": 8693,
      "▁Pictures": 8694,
      "▁conv": 8695,
      "iest": 8696,
      "▁world-class": 8697,
      "R)": 8698,
      "▁Order": 8699,
      "▁people,": 8700,
      "▁analyt": 8701,
      "eed": 8702,
      "▁Contin": 8703,
      "▁limit": 8704,
      "▁Games": 8705,
      "▁Christopher": 8706,
      "het": 8707,
      "▁upgrad": 8708,
      "▁Conservation": 8709,
      "▁Model": 8710,
      "EF": 8711,
      "ai,": 8712,
      "▁d’": 8713,
      "▁market.": 8714,
      "▁Tan": 8715,
      "▁reperto": 8716,
      "▁ancient": 8717,
      "▁earning": 8718,
      "x,": 8719,
      "▁Chile": 8720,
      "▁18,": 8721,
      "iley": 8722,
      "\nInd": 8723,
      "▁ideas": 8724,
      "▁\"T": 8725,
      "▁gender": 8726,
      "oca": 8727,
      "ctoral": 8728,
      "ather,": 8729,
      "▁utility": 8730,
      "▁tiss": 8731,
      "▁aviation": 8732,
      "ch,": 8733,
      "▁5G": 8734,
      "▁vibrant": 8735,
      "er:": 8736,
      "rust": 8737,
      "opyright": 8738,
      "▁Screen": 8739,
      "▁CBS": 8740,
      "▁deployment": 8741,
      "▁pool": 8742,
      "▁prices": 8743,
      "▁Directors": 8744,
      "ier,": 8745,
      "▁Teaching": 8746,
      "print": 8747,
      "▁pattern": 8748,
      "ieces": 8749,
      "▁trading": 8750,
      "▁captured": 8751,
      "▁Prim": 8752,
      "▁portray": 8753,
      "▁enterprise": 8754,
      "▁Republican": 8755,
      "28": 8756,
      "eless": 8757,
      "-9": 8758,
      "rett": 8759,
      "▁View": 8760,
      "▁accommod": 8761,
      ".\nBy": 8762,
      "annah": 8763,
      "▁Ku": 8764,
      "iox": 8765,
      "▁Wel": 8766,
      "▁teacher": 8767,
      "▁Manhattan": 8768,
      "ipping": 8769,
      "▁aimed": 8770,
      "▁Agreement": 8771,
      "▁government,": 8772,
      "▁advantage": 8773,
      "▁Wisconsin": 8774,
      "▁firms": 8775,
      "▁Arthur": 8776,
      "▁Tog": 8777,
      "▁Symposium": 8778,
      "R.": 8779,
      "▁Ross": 8780,
      "▁YouT": 8781,
      "▁predict": 8782,
      "▁re-": 8783,
      "hematics": 8784,
      "▁intended": 8785,
      "▁reason": 8786,
      "▁request": 8787,
      "ja": 8788,
      "▁inters": 8789,
      "las": 8790,
      "▁done": 8791,
      "▁Lev": 8792,
      ".edu": 8793,
      "eu": 8794,
      "net": 8795,
      "▁Task": 8796,
      "▁laboratory": 8797,
      "▁depend": 8798,
      "EAN": 8799,
      "▁23,": 8800,
      "▁Chemical": 8801,
      "UM": 8802,
      "▁entry": 8803,
      "visor": 8804,
      "▁quantum": 8805,
      "▁lux": 8806,
      "▁...": 8807,
      "run": 8808,
      "▁synd": 8809,
      "aval": 8810,
      "▁although": 8811,
      "▁\"H": 8812,
      "▁mind": 8813,
      "▁detect": 8814,
      "▁Es": 8815,
      "▁conserv": 8816,
      "▁Reserve": 8817,
      "▁moment": 8818,
      "▁slow": 8819,
      "zan": 8820,
      "▁Pittsburgh": 8821,
      "▁providers": 8822,
      "▁instrumental": 8823,
      "▁Lewis": 8824,
      "▁hardware": 8825,
      "▁Instagram": 8826,
      "▁lived": 8827,
      "\nEn": 8828,
      "▁Airport,": 8829,
      "▁Rap": 8830,
      "otal": 8831,
      "▁Nar": 8832,
      "urer": 8833,
      "▁tank": 8834,
      "▁Lock": 8835,
      "▁typically": 8836,
      "▁2006,": 8837,
      "ighth": 8838,
      "▁Mit": 8839,
      "▁Const": 8840,
      "▁films,": 8841,
      "-income": 8842,
      "▁terminal": 8843,
      "án": 8844,
      "▁Rome": 8845,
      "▁24,": 8846,
      "▁Asia,": 8847,
      "da": 8848,
      "▁cat": 8849,
      "▁USS": 8850,
      "▁favorite": 8851,
      "acy,": 8852,
      "▁entitled": 8853,
      "▁Francisco,": 8854,
      "▁state,": 8855,
      "▁Anne": 8856,
      "▁undert": 8857,
      "▁Islands": 8858,
      "▁Gam": 8859,
      "ulations": 8860,
      "▁Dean": 8861,
      "▁organizations,": 8862,
      "▁Universal": 8863,
      "reece": 8864,
      "\nNext": 8865,
      "sterd": 8866,
      "▁Science,": 8867,
      ")\nS": 8868,
      "▁esc": 8869,
      "holders": 8870,
      "▁turb": 8871,
      "▁Tag": 8872,
      "http://www.": 8873,
      "▁shopping": 8874,
      "▁large-scale": 8875,
      "▁accelerate": 8876,
      "▁1997": 8877,
      "▁strength": 8878,
      "▁wa": 8879,
      "▁Nuclear": 8880,
      "▁Build": 8881,
      "66": 8882,
      "ycl": 8883,
      "▁appropri": 8884,
      "▁turned": 8885,
      "▁Six": 8886,
      "▁maritime": 8887,
      "▁optical": 8888,
      "▁Southeast": 8889,
      "▁generated": 8890,
      "▁Ban": 8891,
      "▁interactive": 8892,
      "orrow": 8893,
      "▁Travel": 8894,
      "▁Gil": 8895,
      "▁lawy": 8896,
      "▁marked": 8897,
      "▁Construction": 8898,
      "▁2018.": 8899,
      "▁sciences": 8900,
      "M.": 8901,
      "▁arrang": 8902,
      "▁toured": 8903,
      "ich,": 8904,
      "▁offshore": 8905,
      "▁Rele": 8906,
      "▁usually": 8907,
      "▁188": 8908,
      "ying": 8909,
      "▁inspir": 8910,
      "▁Miller": 8911,
      "▁victim": 8912,
      "inery": 8913,
      "rint": 8914,
      "▁Lov": 8915,
      "▁Maria": 8916,
      "▁ahead": 8917,
      "▁heard": 8918,
      "lay": 8919,
      "agan": 8920,
      "▁R&D": 8921,
      "ibilities": 8922,
      "▁Cann": 8923,
      "bol": 8924,
      "▁Document": 8925,
      "▁co-auth": 8926,
      "44": 8927,
      "▁Pier": 8928,
      "elled": 8929,
      "▁owns": 8930,
      "▁veteran": 8931,
      "▁extens": 8932,
      "▁Nobel": 8933,
      "▁AG": 8934,
      "▁Pur": 8935,
      "▁scholar": 8936,
      "▁installation": 8937,
      "s),": 8938,
      "▁Bon": 8939,
      "▁prol": 8940,
      "▁largely": 8941,
      "▁Pract": 8942,
      "olved": 8943,
      "▁draft": 8944,
      "▁believe": 8945,
      "▁Sav": 8946,
      "▁Tax": 8947,
      "▁Form": 8948,
      "▁Creative": 8949,
      "▁generate": 8950,
      "▁blue": 8951,
      "▁cool": 8952,
      "▁worldwide.": 8953,
      "▁Dougl": 8954,
      "________": 8955,
      "atically": 8956,
      "▁implemented": 8957,
      "▁26,": 8958,
      "▁Cleveland": 8959,
      "DI": 8960,
      "▁NFL": 8961,
      "▁25,": 8962,
      "▁manufacturer": 8963,
      "▁Billy": 8964,
      "▁2021.": 8965,
      "▁ban": 8966,
      "▁certific": 8967,
      "▁Pot": 8968,
      "▁comed": 8969,
      "illance": 8970,
      "▁See": 8971,
      "▁Patrick": 8972,
      "\nby": 8973,
      "ins,": 8974,
      "▁tack": 8975,
      "▁Sony": 8976,
      "▁Age": 8977,
      "▁mort": 8978,
      "▁therm": 8979,
      "cuss": 8980,
      "▁sn": 8981,
      "iner": 8982,
      "▁heritage": 8983,
      "▁Turkey": 8984,
      "▁alleged": 8985,
      "▁veg": 8986,
      "▁kick": 8987,
      "iquid": 8988,
      "▁biological": 8989,
      "leans": 8990,
      "irty": 8991,
      "▁creates": 8992,
      "▁adaptation": 8993,
      "▁motor": 8994,
      "▁Oil": 8995,
      "uthors": 8996,
      "▁Allen": 8997,
      "aded": 8998,
      "omic": 8999,
      "▁formerly": 9000,
      "▁Burn": 9001,
      "rowd": 9002,
      "▁accessible": 9003,
      "▁bul": 9004,
      "▁kilomet": 9005,
      "/P": 9006,
      "▁discovered": 9007,
      "▁resolution": 9008,
      "al.": 9009,
      "▁Manufact": 9010,
      "▁Il": 9011,
      "▁delivering": 9012,
      "▁profit": 9013,
      "▁Bron": 9014,
      "▁immune": 9015,
      "▁NS": 9016,
      "▁ped": 9017,
      "▁Bav": 9018,
      "▁authority": 9019,
      "▁matt": 9020,
      "’m": 9021,
      "ford,": 9022,
      "▁detailed": 9023,
      "▁begins": 9024,
      "▁Ryan": 9025,
      "▁ago": 9026,
      "▁Ensemble": 9027,
      "\nUS": 9028,
      "asy": 9029,
      "▁Hamil": 9030,
      "▁Housing": 9031,
      "gn": 9032,
      "▁Like": 9033,
      "▁recovery": 9034,
      "abric": 9035,
      "▁speech": 9036,
      "▁Tokyo": 9037,
      "lass": 9038,
      "▁Unit": 9039,
      "▁Iss": 9040,
      "T,": 9041,
      "▁gives": 9042,
      "▁Renew": 9043,
      "-cont": 9044,
      "arp": 9045,
      "▁incent": 9046,
      "▁banks": 9047,
      "▁Laud": 9048,
      "▁Czech": 9049,
      "▁peak": 9050,
      "▁Technology,": 9051,
      "oles": 9052,
      "▁City.": 9053,
      "▁Afghanistan": 9054,
      "▁Mem": 9055,
      "ractions": 9056,
      "▁claims": 9057,
      "iop": 9058,
      "s.\nD": 9059,
      "▁Artists": 9060,
      "▁Motor": 9061,
      "-8": 9062,
      "▁email": 9063,
      "reci": 9064,
      "▁capability": 9065,
      "art,": 9066,
      "▁goods": 9067,
      "▁conventional": 9068,
      "▁Museum,": 9069,
      "go,": 9070,
      "kee": 9071,
      "▁discovery": 9072,
      "▁Dark": 9073,
      "▁Wolf": 9074,
      "▁capture": 9075,
      "▁experimental": 9076,
      "onia": 9077,
      "▁Ever": 9078,
      "▁situated": 9079,
      "ocracy": 9080,
      "ichol": 9081,
      "▁Bat": 9082,
      "-ch": 9083,
      "irthplace:": 9084,
      "▁well-known": 9085,
      "enez": 9086,
      "▁table": 9087,
      "▁disp": 9088,
      "▁Former": 9089,
      "pace": 9090,
      "▁complet": 9091,
      "more,": 9092,
      "▁remaining": 9093,
      "▁curric": 9094,
      "pson": 9095,
      "▁Local": 9096,
      "▁commonly": 9097,
      "imens": 9098,
      "▁Cra": 9099,
      "▁2019.": 9100,
      "ness,": 9101,
      "▁cable": 9102,
      "▁teaches": 9103,
      "▁Bak": 9104,
      "▁Near": 9105,
      "▁plus": 9106,
      "▁operations,": 9107,
      "▁fil": 9108,
      "▁waters": 9109,
      "▁Pul": 9110,
      "▁revealed": 9111,
      "▁spok": 9112,
      "▁U.S.,": 9113,
      "RS": 9114,
      "▁match": 9115,
      "imm": 9116,
      "ologist": 9117,
      "▁push": 9118,
      "▁shop": 9119,
      "▁nomine": 9120,
      "▁era": 9121,
      "▁reliable": 9122,
      ".\nSince": 9123,
      "▁Process": 9124,
      "▁arg": 9125,
      "▁score": 9126,
      "▁Times,": 9127,
      "ossil": 9128,
      "▁aerospace": 9129,
      "ines.": 9130,
      "col": 9131,
      "▁bachelor": 9132,
      "▁populous": 9133,
      "▁Gun": 9134,
      ".)": 9135,
      "▁→": 9136,
      ".\nMutual": 9137,
      "▁opens": 9138,
      "▁Artistic": 9139,
      "compass": 9140,
      "▁establishing": 9141,
      "O,": 9142,
      "ito": 9143,
      "▁Greater": 9144,
      "wide,": 9145,
      "▁2022.": 9146,
      "▁House,": 9147,
      "▁mal": 9148,
      "▁points": 9149,
      "▁(p": 9150,
      "▁Conservatory": 9151,
      "▁life,": 9152,
      "▁membership": 9153,
      "ello": 9154,
      "▁soil": 9155,
      "▁subst": 9156,
      "iot": 9157,
      "▁efficienc": 9158,
      "▁27,": 9159,
      "ciples": 9160,
      "▁respectively": 9161,
      "▁x": 9162,
      "▁too": 9163,
      "UC": 9164,
      "▁try": 9165,
      "\nAr": 9166,
      "▁Insp": 9167,
      "▁installed": 9168,
      "▁recognize": 9169,
      "▁2016.": 9170,
      "▁community,": 9171,
      "▁Daily": 9172,
      "▁gain": 9173,
      "▁Philharmonic,": 9174,
      "uros": 9175,
      "▁recover": 9176,
      "▁Right": 9177,
      "alled": 9178,
      "elect": 9179,
      "alo": 9180,
      "▁shares": 9181,
      "ador,": 9182,
      "erse": 9183,
      "irt": 9184,
      "box": 9185,
      "oust": 9186,
      "edition": 9187,
      "▁(d": 9188,
      "▁performer": 9189,
      "▁Alf": 9190,
      "▁book,": 9191,
      "rank": 9192,
      "▁showed": 9193,
      "▁initially": 9194,
      "▁acts": 9195,
      "▁directors": 9196,
      "▁hear": 9197,
      "▁Monday": 9198,
      "▁city,": 9199,
      "ade,": 9200,
      "▁2020.": 9201,
      "▁weapon": 9202,
      "▁prob": 9203,
      "▁repe": 9204,
      "▁engage": 9205,
      "▁Job": 9206,
      "▁champion": 9207,
      "▁Minnesota": 9208,
      "▁Wat": 9209,
      "▁Architecture": 9210,
      "O)": 9211,
      "00,000": 9212,
      "▁technologies,": 9213,
      "▁registered": 9214,
      "▁fine": 9215,
      "eman": 9216,
      "EP": 9217,
      "break": 9218,
      "▁journalist": 9219,
      "chor": 9220,
      "▁Gord": 9221,
      "▁Ott": 9222,
      "ears": 9223,
      "▁Alan": 9224,
      "breaking": 9225,
      "▁batt": 9226,
      "▁assigned": 9227,
      "▁Abu": 9228,
      "▁NATO": 9229,
      "▁van": 9230,
      "▁transpar": 9231,
      "▁Ambassador": 9232,
      "resented": 9233,
      "▁Deep": 9234,
      "▁FOR": 9235,
      "▁life.": 9236,
      "▁Archives": 9237,
      "-free": 9238,
      "▁relationships": 9239,
      "front": 9240,
      "alm": 9241,
      "▁SC": 9242,
      "’ll": 9243,
      "T)": 9244,
      "▁changing": 9245,
      "▁rather": 9246,
      "▁crim": 9247,
      "▁Opt": 9248,
      "▁Commercial": 9249,
      "ency,": 9250,
      "▁1994": 9251,
      "▁consecutive": 9252,
      "▁prepared": 9253,
      "▁tons": 9254,
      "▁concerns": 9255,
      "rak": 9256,
      "▁Amsterd": 9257,
      "▁high-quality": 9258,
      "▁shoot": 9259,
      "ronom": 9260,
      "▁2023,": 9261,
      "▁36": 9262,
      "▁Ts": 9263,
      "▁edge": 9264,
      "osm": 9265,
      "▁ended": 9266,
      "▁extremely": 9267,
      "▁million.": 9268,
      "▁Again": 9269,
      "ND": 9270,
      "ous,": 9271,
      "▁28,": 9272,
      "▁Eff": 9273,
      "▁“This": 9274,
      "ographer": 9275,
      "▁theme": 9276,
      "▁Indiana": 9277,
      "▁Andre": 9278,
      "ants,": 9279,
      "▁investor": 9280,
      "▁MW": 9281,
      "▁daughter": 9282,
      "▁assum": 9283,
      "▁guests": 9284,
      "▁chronic": 9285,
      "ESCO": 9286,
      "▁Sarah": 9287,
      "▁themselves": 9288,
      "▁forced": 9289,
      "▁targeted": 9290,
      "I.": 9291,
      "▁Cur": 9292,
      "▁2015.": 9293,
      "▁company.": 9294,
      "▁Nik": 9295,
      "aret": 9296,
      "▁metropolitan": 9297,
      "▁55": 9298,
      "▁doing": 9299,
      "▁violin": 9300,
      "▁numbers": 9301,
      "aza": 9302,
      "▁visiting": 9303,
      "’,": 9304,
      "▁today.": 9305,
      "▁nationally": 9306,
      "iding": 9307,
      "▁Death": 9308,
      "▁Guide": 9309,
      "▁illegal": 9310,
      "▁songwrit": 9311,
      "▁algorithms": 9312,
      "▁Ten": 9313,
      "▁minutes": 9314,
      "▁Path": 9315,
      "▁phen": 9316,
      "▁PBS": 9317,
      "-largest": 9318,
      "track": 9319,
      "▁(including": 9320,
      "▁nearby": 9321,
      "▁Britain": 9322,
      "▁municipal": 9323,
      "imedia": 9324,
      "essions": 9325,
      "ascular": 9326,
      "▁crop": 9327,
      ".\nMr.": 9328,
      "atar": 9329,
      "▁\"M": 9330,
      "▁Operation": 9331,
      "▁severe": 9332,
      "IE": 9333,
      "▁Gary": 9334,
      "▁Jose": 9335,
      "rone": 9336,
      "▁transit": 9337,
      "▁II,": 9338,
      "\n20": 9339,
      "▁4.": 9340,
      "▁celebrates": 9341,
      "▁Ky": 9342,
      "▁Treas": 9343,
      "aste": 9344,
      "▁Pun": 9345,
      "▁marks": 9346,
      "▁FBI": 9347,
      "chell": 9348,
      "VD": 9349,
      "▁bacter": 9350,
      "▁Sud": 9351,
      "ives.": 9352,
      "▁Canada.": 9353,
      "IB": 9354,
      "New": 9355,
      "▁experiment": 9356,
      "▁reputation": 9357,
      "▁Buff": 9358,
      "▁actors": 9359,
      "▁Phill": 9360,
      "ortium": 9361,
      "▁McD": 9362,
      "▁effectively": 9363,
      "▁volume": 9364,
      "▁landscap": 9365,
      "▁emot": 9366,
      "▁passenger": 9367,
      "▁robust": 9368,
      "ometimes": 9369,
      "▁relief": 9370,
      "▁infect": 9371,
      "-hour": 9372,
      "▁globally": 9373,
      "▁formal": 9374,
      "▁Diversity": 9375,
      "-en": 9376,
      "arth": 9377,
      "iking": 9378,
      "▁compliance": 9379,
      "▁contributing": 9380,
      "▁BC": 9381,
      "cluded": 9382,
      "▁Louisiana": 9383,
      "▁NEW": 9384,
      "▁regulations": 9385,
      "▁talented": 9386,
      "▁ice": 9387,
      "▁Blues": 9388,
      "-part": 9389,
      "▁protest": 9390,
      "ooth": 9391,
      "▁cargo": 9392,
      "▁Dublin": 9393,
      "▁appears": 9394,
      "-ray": 9395,
      "▁Muslim": 9396,
      "▁Whe": 9397,
      "▁temperature": 9398,
      "▁dates": 9399,
      "▁(a": 9400,
      "▁doub": 9401,
      "bury": 9402,
      "▁dang": 9403,
      "▁Greece": 9404,
      "▁34": 9405,
      "▁approaches": 9406,
      "▁Program,": 9407,
      "▁literary": 9408,
      "▁portion": 9409,
      "▁pharmaceutical": 9410,
      "▁singing": 9411,
      "▁1995": 9412,
      "▁helic": 9413,
      "▁specialized": 9414,
      "▁Society,": 9415,
      "▁civilian": 9416,
      "▁Hud": 9417,
      "rics": 9418,
      "▁demonstrate": 9419,
      "▁recently,": 9420,
      "▁Orleans": 9421,
      "▁engineers": 9422,
      "▁season,": 9423,
      "▁Cloud": 9424,
      "▁Mayor": 9425,
      "▁counsel": 9426,
      "▁Denver": 9427,
      "pear": 9428,
      "opt": 9429,
      "▁Art,": 9430,
      "▁Center.": 9431,
      "lan": 9432,
      "▁dial": 9433,
      "▁transformation": 9434,
      "▁Edition": 9435,
      "▁fashion": 9436,
      "▁sty": 9437,
      "xic": 9438,
      "▁facing": 9439,
      "32": 9440,
      "▁EP": 9441,
      "▁releases": 9442,
      "▁enhanced": 9443,
      "▁amb": 9444,
      "▁Europe.": 9445,
      "▁targets": 9446,
      "▁STEM": 9447,
      "▁Vancouver,": 9448,
      "AB": 9449,
      "▁tourism": 9450,
      "▁programme": 9451,
      "lets": 9452,
      "▁42": 9453,
      "▁187": 9454,
      "▁Rain": 9455,
      "▁Shen": 9456,
      "▁Veh": 9457,
      "▁disaster": 9458,
      "▁propert": 9459,
      "▁Abd": 9460,
      "\nMore": 9461,
      "▁immun": 9462,
      "hr": 9463,
      "▁TH": 9464,
      "▁nominations": 9465,
      "mail": 9466,
      "▁Bry": 9467,
      "▁despite": 9468,
      "▁interact": 9469,
      "ori": 9470,
      "hus": 9471,
      "▁4th": 9472,
      "As": 9473,
      "▁threats": 9474,
      "▁Impact": 9475,
      "▁NYC": 9476,
      "roduced": 9477,
      "▁Und": 9478,
      "▁swit": 9479,
      "▁increases": 9480,
      "▁lov": 9481,
      "▁witness": 9482,
      "▁Globe": 9483,
      "▁Image": 9484,
      "ra,": 9485,
      "▁ID": 9486,
      "▁Get": 9487,
      "▁priz": 9488,
      "▁Greek": 9489,
      "▁publishing": 9490,
      "▁Verizon": 9491,
      "antic": 9492,
      "▁Enterprise": 9493,
      "SM": 9494,
      "▁brands": 9495,
      "▁adoption": 9496,
      "iovann": 9497,
      "CD": 9498,
      "▁Winter": 9499,
      "▁Baltimore": 9500,
      "▁2003,": 9501,
      "▁addressing": 9502,
      "▁videos": 9503,
      "▁31,": 9504,
      "▁mel": 9505,
[...]
